{"version": "1.0", "truncation": null, "padding": null, "added_tokens": [{"id": 0, "content": "<|pad|>", "single_word": false, "lstrip": false, "rstrip": false, "normalized": false, "special": true}, {"id": 1, "content": "<|bos|>", "single_word": false, "lstrip": false, "rstrip": false, "normalized": false, "special": true}, {"id": 2, "content": "<|eos|>", "single_word": false, "lstrip": false, "rstrip": false, "normalized": false, "special": true}, {"id": 3, "content": "<|unk|>", "single_word": false, "lstrip": false, "rstrip": false, "normalized": false, "special": true}, {"id": 4, "content": "<|sep|>", "single_word": false, "lstrip": false, "rstrip": false, "normalized": false, "special": true}, {"id": 5, "content": "<|mask|>", "single_word": false, "lstrip": false, "rstrip": false, "normalized": false, "special": true}, {"id": 6, "content": "<|system|>", "single_word": false, "lstrip": false, "rstrip": false, "normalized": false, "special": true}, {"id": 7, "content": "<|user|>", "single_word": false, "lstrip": false, "rstrip": false, "normalized": false, "special": true}, {"id": 8, "content": "<|assistant|>", "single_word": false, "lstrip": false, "rstrip": false, "normalized": false, "special": true}, {"id": 9, "content": "<|tool|>", "single_word": false, "lstrip": false, "rstrip": false, "normalized": false, "special": true}, {"id": 10, "content": "<|start_turn|>", "single_word": false, "lstrip": false, "rstrip": false, "normalized": false, "special": true}, {"id": 11, "content": "<|end_turn|>", "single_word": false, "lstrip": false, "rstrip": false, "normalized": false, "special": true}, {"id": 12, "content": "<|start_header|>", "single_word": false, "lstrip": false, "rstrip": false, "normalized": false, "special": true}, {"id": 13, "content": "<|end_header|>", "single_word": false, "lstrip": false, "rstrip": false, "normalized": false, "special": true}, {"id": 14, "content": "<|code_start|>", "single_word": false, "lstrip": false, "rstrip": false, "normalized": false, "special": true}, {"id": 15, "content": "<|code_end|>", "single_word": false, "lstrip": false, "rstrip": false, "normalized": false, "special": true}, {"id": 16, "content": "<|fim_prefix|>", "single_word": false, "lstrip": false, "rstrip": false, "normalized": false, "special": true}, {"id": 17, "content": "<|fim_middle|>", "single_word": false, "lstrip": false, "rstrip": false, "normalized": false, "special": true}, {"id": 18, "content": "<|fim_suffix|>", "single_word": false, "lstrip": false, "rstrip": false, "normalized": false, "special": true}, {"id": 19, "content": "<|lang:python|>", "single_word": false, "lstrip": false, "rstrip": false, "normalized": false, "special": true}, {"id": 20, "content": "<|lang:javascript|>", "single_word": false, "lstrip": false, "rstrip": false, "normalized": false, "special": true}, {"id": 21, "content": "<|lang:typescript|>", "single_word": false, "lstrip": false, "rstrip": false, "normalized": false, "special": true}, {"id": 22, "content": "<|lang:java|>", "single_word": false, "lstrip": false, "rstrip": false, "normalized": false, "special": true}, {"id": 23, "content": "<|lang:go|>", "single_word": false, "lstrip": false, "rstrip": false, "normalized": false, "special": true}, {"id": 24, "content": "<|lang:rust|>", "single_word": false, "lstrip": false, "rstrip": false, "normalized": false, "special": true}, {"id": 25, "content": "<|lang:cpp|>", "single_word": false, "lstrip": false, "rstrip": false, "normalized": false, "special": true}, {"id": 26, "content": "<|lang:c|>", "single_word": false, "lstrip": false, "rstrip": false, "normalized": false, "special": true}, {"id": 27, "content": "<|lang:ruby|>", "single_word": false, "lstrip": false, "rstrip": false, "normalized": false, "special": true}, {"id": 28, "content": "<|lang:php|>", "single_word": false, "lstrip": false, "rstrip": false, "normalized": false, "special": true}, {"id": 29, "content": "<|lang:swift|>", "single_word": false, "lstrip": false, "rstrip": false, "normalized": false, "special": true}, {"id": 30, "content": "<|lang:kotlin|>", "single_word": false, "lstrip": false, "rstrip": false, "normalized": false, "special": true}, {"id": 31, "content": "<|lang:scala|>", "single_word": false, "lstrip": false, "rstrip": false, "normalized": false, "special": true}, {"id": 32, "content": "<|lang:bash|>", "single_word": false, "lstrip": false, "rstrip": false, "normalized": false, "special": true}, {"id": 33, "content": "<|lang:sql|>", "single_word": false, "lstrip": false, "rstrip": false, "normalized": false, "special": true}, {"id": 34, "content": "<|lang:html|>", "single_word": false, "lstrip": false, "rstrip": false, "normalized": false, "special": true}, {"id": 35, "content": "<|lang:css|>", "single_word": false, "lstrip": false, "rstrip": false, "normalized": false, "special": true}, {"id": 36, "content": "<|lang:json|>", "single_word": false, "lstrip": false, "rstrip": false, "normalized": false, "special": true}, {"id": 37, "content": "<|lang:yaml|>", "single_word": false, "lstrip": false, "rstrip": false, "normalized": false, "special": true}, {"id": 38, "content": "<|lang:markdown|>", "single_word": false, "lstrip": false, "rstrip": false, "normalized": false, "special": true}, {"id": 39, "content": "<|lang:csharp|>", "single_word": false, "lstrip": false, "rstrip": false, "normalized": false, "special": true}, {"id": 40, "content": "<|doc_start|>", "single_word": false, "lstrip": false, "rstrip": false, "normalized": false, "special": true}, {"id": 41, "content": "<|doc_end|>", "single_word": false, "lstrip": false, "rstrip": false, "normalized": false, "special": true}, {"id": 42, "content": "<|paragraph|>", "single_word": false, "lstrip": false, "rstrip": false, "normalized": false, "special": true}, {"id": 43, "content": "<|think_start|>", "single_word": false, "lstrip": false, "rstrip": false, "normalized": false, "special": true}, {"id": 44, "content": "<|think_end|>", "single_word": false, "lstrip": false, "rstrip": false, "normalized": false, "special": true}, {"id": 45, "content": "<|math_start|>", "single_word": false, "lstrip": false, "rstrip": false, "normalized": false, "special": true}, {"id": 46, "content": "<|math_end|>", "single_word": false, "lstrip": false, "rstrip": false, "normalized": false, "special": true}, {"id": 47, "content": "<|citation|>", "single_word": false, "lstrip": false, "rstrip": false, "normalized": false, "special": true}, {"id": 48, "content": "<|tool_call|>", "single_word": false, "lstrip": false, "rstrip": false, "normalized": false, "special": true}, {"id": 49, "content": "<|tool_result|>", "single_word": false, "lstrip": false, "rstrip": false, "normalized": false, "special": true}, {"id": 50, "content": "<|reserved_0|>", "single_word": false, "lstrip": false, "rstrip": false, "normalized": false, "special": true}, {"id": 51, "content": "<|reserved_1|>", "single_word": false, "lstrip": false, "rstrip": false, "normalized": false, "special": true}, {"id": 52, "content": "<|reserved_2|>", "single_word": false, "lstrip": false, "rstrip": false, "normalized": false, "special": true}, {"id": 53, "content": "<|reserved_3|>", "single_word": false, "lstrip": false, "rstrip": false, "normalized": false, "special": true}, {"id": 54, "content": "<|reserved_4|>", "single_word": false, "lstrip": false, "rstrip": false, "normalized": false, "special": true}, {"id": 55, "content": "<|reserved_5|>", "single_word": false, "lstrip": false, "rstrip": false, "normalized": false, "special": true}, {"id": 56, "content": "<|reserved_6|>", "single_word": false, "lstrip": false, "rstrip": false, "normalized": false, "special": true}, {"id": 57, "content": "<|reserved_7|>", "single_word": false, "lstrip": false, "rstrip": false, "normalized": false, "special": true}, {"id": 58, "content": "<|reserved_8|>", "single_word": false, "lstrip": false, "rstrip": false, "normalized": false, "special": true}, {"id": 59, "content": "<|reserved_9|>", "single_word": false, "lstrip": false, "rstrip": false, "normalized": false, "special": true}, {"id": 60, "content": "<|reserved_10|>", "single_word": false, "lstrip": false, "rstrip": false, "normalized": false, "special": true}, {"id": 61, "content": "<|reserved_11|>", "single_word": false, "lstrip": false, "rstrip": false, "normalized": false, "special": true}, {"id": 62, "content": "<|reserved_12|>", "single_word": false, "lstrip": false, "rstrip": false, "normalized": false, "special": true}, {"id": 63, "content": "<|reserved_13|>", "single_word": false, "lstrip": false, "rstrip": false, "normalized": false, "special": true}, {"id": 64, "content": "<|reserved_14|>", "single_word": false, "lstrip": false, "rstrip": false, "normalized": false, "special": true}, {"id": 65, "content": "<|reserved_15|>", "single_word": false, "lstrip": false, "rstrip": false, "normalized": false, "special": true}, {"id": 66, "content": "<|reserved_16|>", "single_word": false, "lstrip": false, "rstrip": false, "normalized": false, "special": true}, {"id": 67, "content": "<|reserved_17|>", "single_word": false, "lstrip": false, "rstrip": false, "normalized": false, "special": true}, {"id": 68, "content": "<|reserved_18|>", "single_word": false, "lstrip": false, "rstrip": false, "normalized": false, "special": true}, {"id": 69, "content": "<|reserved_19|>", "single_word": false, "lstrip": false, "rstrip": false, "normalized": false, "special": true}, {"id": 70, "content": "<|reserved_20|>", "single_word": false, "lstrip": false, "rstrip": false, "normalized": false, "special": true}, {"id": 71, "content": "<|reserved_21|>", "single_word": false, "lstrip": false, "rstrip": false, "normalized": false, "special": true}, {"id": 72, "content": "<|reserved_22|>", "single_word": false, "lstrip": false, "rstrip": false, "normalized": false, "special": true}, {"id": 73, "content": "<|reserved_23|>", "single_word": false, "lstrip": false, "rstrip": false, "normalized": false, "special": true}, {"id": 74, "content": "<|reserved_24|>", "single_word": false, "lstrip": false, "rstrip": false, "normalized": false, "special": true}, {"id": 75, "content": "<|reserved_25|>", "single_word": false, "lstrip": false, "rstrip": false, "normalized": false, "special": true}, {"id": 76, "content": "<|reserved_26|>", "single_word": false, "lstrip": false, "rstrip": false, "normalized": false, "special": true}, {"id": 77, "content": "<|reserved_27|>", "single_word": false, "lstrip": false, "rstrip": false, "normalized": false, "special": true}, {"id": 78, "content": "<|reserved_28|>", "single_word": false, "lstrip": false, "rstrip": false, "normalized": false, "special": true}, {"id": 79, "content": "<|reserved_29|>", "single_word": false, "lstrip": false, "rstrip": false, "normalized": false, "special": true}], "normalizer": null, "pre_tokenizer": {"type": "Sequence", "pretokenizers": [{"type": "Split", "pattern": {"Regex": "[^\\r\\n\\p{L}\\p{N}]?[\\p{L}\\p{M}]+(?:'[\\p{L}\\p{M}]+)*|0[xXbBoO][\\p{N}a-fA-F]+|\\p{N}{1,1}| ?[^\\s\\p{L}\\p{N}]{1,8}[\\r\\n/]*|\\s*[\\r\\n]+|\\s{1,16}(?!\\S)|\\s{1,16}"}, "behavior": "Isolated", "invert": false}, {"type": "ByteLevel", "add_prefix_space": false, "trim_offsets": true, "use_regex": false}]}, "post_processor": null, "decoder": {"type": "ByteLevel", "add_prefix_space": true, "trim_offsets": true, "use_regex": true}, "model": {"type": "BPE", "dropout": null, "unk_token": null, "continuing_subword_prefix": null, "end_of_word_suffix": null, "fuse_unk": false, "byte_fallback": false, "ignore_merges": false, "vocab": {"<|pad|>": 0, "<|bos|>": 1, "<|eos|>": 2, "<|unk|>": 3, "<|sep|>": 4, "<|mask|>": 5, "<|system|>": 6, "<|user|>": 7, "<|assistant|>": 8, "<|tool|>": 9, "<|start_turn|>": 10, "<|end_turn|>": 11, "<|start_header|>": 12, "<|end_header|>": 13, "<|code_start|>": 14, "<|code_end|>": 15, "<|fim_prefix|>": 16, "<|fim_middle|>": 17, "<|fim_suffix|>": 18, "<|lang:python|>": 19, "<|lang:javascript|>": 20, "<|lang:typescript|>": 21, "<|lang:java|>": 22, "<|lang:go|>": 23, "<|lang:rust|>": 24, "<|lang:cpp|>": 25, "<|lang:c|>": 26, "<|lang:ruby|>": 27, "<|lang:php|>": 28, "<|lang:swift|>": 29, "<|lang:kotlin|>": 30, "<|lang:scala|>": 31, "<|lang:bash|>": 32, "<|lang:sql|>": 33, "<|lang:html|>": 34, "<|lang:css|>": 35, "<|lang:json|>": 36, "<|lang:yaml|>": 37, "<|lang:markdown|>": 38, "<|lang:csharp|>": 39, "<|doc_start|>": 40, "<|doc_end|>": 41, "<|paragraph|>": 42, "<|think_start|>": 43, "<|think_end|>": 44, "<|math_start|>": 45, "<|math_end|>": 46, "<|citation|>": 47, "<|tool_call|>": 48, "<|tool_result|>": 49, "<|reserved_0|>": 50, "<|reserved_1|>": 51, "<|reserved_2|>": 52, "<|reserved_3|>": 53, "<|reserved_4|>": 54, "<|reserved_5|>": 55, "<|reserved_6|>": 56, "<|reserved_7|>": 57, "<|reserved_8|>": 58, "<|reserved_9|>": 59, "<|reserved_10|>": 60, "<|reserved_11|>": 61, "<|reserved_12|>": 62, "<|reserved_13|>": 63, "<|reserved_14|>": 64, "<|reserved_15|>": 65, "<|reserved_16|>": 66, "<|reserved_17|>": 67, "<|reserved_18|>": 68, "<|reserved_19|>": 69, "<|reserved_20|>": 70, "<|reserved_21|>": 71, "<|reserved_22|>": 72, "<|reserved_23|>": 73, "<|reserved_24|>": 74, "<|reserved_25|>": 75, "<|reserved_26|>": 76, "<|reserved_27|>": 77, "<|reserved_28|>": 78, "<|reserved_29|>": 79, "!": 80, "\"": 81, "#": 82, "$": 83, "%": 84, "&": 85, "'": 86, "(": 87, ")": 88, "*": 89, "+": 90, ",": 91, "-": 92, ".": 93, "/": 94, "0": 95, "1": 96, "2": 97, "3": 98, "4": 99, "5": 100, "6": 101, "7": 102, "8": 103, "9": 104, ":": 105, ";": 106, "<": 107, "=": 108, ">": 109, "?": 110, "@": 111, "A": 112, "B": 113, "C": 114, "D": 115, "E": 116, "F": 117, "G": 118, "H": 119, "I": 120, "J": 121, "K": 122, "L": 123, "M": 124, "N": 125, "O": 126, "P": 127, "Q": 128, "R": 129, "S": 130, "T": 131, "U": 132, "V": 133, "W": 134, "X": 135, "Y": 136, "Z": 137, "[": 138, "\\": 139, "]": 140, "^": 141, "_": 142, "`": 143, "a": 144, "b": 145, "c": 146, "d": 147, "e": 148, "f": 149, "g": 150, "h": 151, "i": 152, "j": 153, "k": 154, "l": 155, "m": 156, "n": 157, "o": 158, "p": 159, "q": 160, "r": 161, "s": 162, "t": 163, "u": 164, "v": 165, "w": 166, "x": 167, "y": 168, "z": 169, "{": 170, "|": 171, "}": 172, "~": 173, "¡": 174, "¢": 175, "£": 176, "¤": 177, "¥": 178, "¦": 179, "§": 180, "¨": 181, "©": 182, "ª": 183, "«": 184, "¬": 185, "®": 186, "¯": 187, "°": 188, "±": 189, "²": 190, "³": 191, "´": 192, "µ": 193, "¶": 194, "·": 195, "¸": 196, "¹": 197, "º": 198, "»": 199, "¼": 200, "½": 201, "¾": 202, "¿": 203, "À": 204, "Á": 205, "Â": 206, "Ã": 207, "Ä": 208, "Å": 209, "Æ": 210, "Ç": 211, "È": 212, "É": 213, "Ê": 214, "Ë": 215, "Ì": 216, "Í": 217, "Î": 218, "Ï": 219, "Ð": 220, "Ñ": 221, "Ò": 222, "Ó": 223, "Ô": 224, "Õ": 225, "Ö": 226, "×": 227, "Ø": 228, "Ù": 229, "Ú": 230, "Û": 231, "Ü": 232, "Ý": 233, "Þ": 234, "ß": 235, "à": 236, "á": 237, "â": 238, "ã": 239, "ä": 240, "å": 241, "æ": 242, "ç": 243, "è": 244, "é": 245, "ê": 246, "ë": 247, "ì": 248, "í": 249, "î": 250, "ï": 251, "ð": 252, "ñ": 253, "ò": 254, "ó": 255, "ô": 256, "õ": 257, "ö": 258, "÷": 259, "ø": 260, "ù": 261, "ú": 262, "û": 263, "ü": 264, "ý": 265, "þ": 266, "ÿ": 267, "Ā": 268, "ā": 269, "Ă": 270, "ă": 271, "Ą": 272, "ą": 273, "Ć": 274, "ć": 275, "Ĉ": 276, "ĉ": 277, "Ċ": 278, "ċ": 279, "Č": 280, "č": 281, "Ď": 282, "ď": 283, "Đ": 284, "đ": 285, "Ē": 286, "ē": 287, "Ĕ": 288, "ĕ": 289, "Ė": 290, "ė": 291, "Ę": 292, "ę": 293, "Ě": 294, "ě": 295, "Ĝ": 296, "ĝ": 297, "Ğ": 298, "ğ": 299, "Ġ": 300, "ġ": 301, "Ģ": 302, "ģ": 303, "Ĥ": 304, "ĥ": 305, "Ħ": 306, "ħ": 307, "Ĩ": 308, "ĩ": 309, "Ī": 310, "ī": 311, "Ĭ": 312, "ĭ": 313, "Į": 314, "į": 315, "İ": 316, "ı": 317, "Ĳ": 318, "ĳ": 319, "Ĵ": 320, "ĵ": 321, "Ķ": 322, "ķ": 323, "ĸ": 324, "Ĺ": 325, "ĺ": 326, "Ļ": 327, "ļ": 328, "Ľ": 329, "ľ": 330, "Ŀ": 331, "ŀ": 332, "Ł": 333, "ł": 334, "Ń": 335, "ĠĠ": 336, "Ġt": 337, "Ġa": 338, "in": 339, "he": 340, "ĠĠĠĠ": 341, "er": 342, "on": 343, "re": 344, "Ġs": 345, "Ġthe": 346, "at": 347, "or": 348, "en": 349, "Ġw": 350, "an": 351, "es": 352, "Ġc": 353, "is": 354, "Ġo": 355, "it": 356, "ed": 357, "Ġf": 358, "al": 359, "Ġan": 360, "Ġp": 361, "ing": 362, "ar": 363, "ou": 364, "Ġb": 365, "Ġin": 366, "Ġof": 367, "Ġm": 368, "Ġand": 369, "ion": 370, "Ġto": 371, "as": 372, "ic": 373, "ĠĠĠ": 374, "le": 375, "Ġd": 376, "el": 377, "om": 378, "Ġh": 379, "ent": 380, "il": 381, "ĠĠĠĠĠĠĠĠ": 382, "st": 383, "ct": 384, "et": 385, "Ġre": 386, "Ġth": 387, "ro": 388, "Ġl": 389, ".Ċ": 390, "Ġn": 391, "am": 392, "ĠT": 393, "ĠS": 394, "Ġe": 395, "id": 396, "ĠC": 397, "ut": 398, "ot": 399, "Ġg": 400, "ur": 401, "se": 402, "ol": 403, "im": 404, "ad": 405, "ĠA": 406, "ce": 407, "ĠI": 408, "ve": 409, "Ġis": 410, "Ġ\"": 411, "Ġfor": 412, "ĠĠĠĠĠĠĠ": 413, "ch": 414, "ig": 415, "ow": 416, "ay": 417, "Ġon": 418, "Ġy": 419, "âĢ": 420, "ation": 421, "ly": 422, "ver": 423, "un": 424, "Ġbe": 425, "ir": 426, "Ġst": 427, "ĠM": 428, ")Ċ": 429, "ith": 430, "us": 431, "if": 432, "Ġhe": 433, "ter": 434, "Ġ(": 435, "ĠP": 436, "Ġthat": 437, "ĠB": 438, "Ġ'": 439, "ra": 440, "ul": 441, "Ġwith": 442, "Ġyou": 443, "Ġas": 444, "od": 445, "est": 446, "ag": 447, "Ġ=": 448, ",Ċ": 449, "ist": 450, "elf": 451, "Ġit": 452, "ĠH": 453, ":Ċ": 454, "Ġal": 455, "ate": 456, "Ġwas": 457, "ri": 458, "ers": 459, "Ġde": 460, "ck": 461, "Ġwh": 462, "th": 463, "ĠThe": 464, "Ġcon": 465, "and": 466, "um": 467, "pe": 468, "em": 469, "ĠD": 470, "ĠR": 471, "ĠF": 472, "Ġpro": 473, "ab": 474, "ĠW": 475, "rom": 476, "ess": 477, "op": 478, "her": 479, "ĠL": 480, "ke": 481, "ill": 482, "qu": 483, "ort": 484, "oun": 485, "ĠN": 486, "Ġor": 487, "Ġv": 488, "ĠG": 489, "ore": 490, "Ġat": 491, "Ġcom": 492, "Ġare": 493, "res": 494, "up": 495, "Ġex": 496, "ld": 497, "ction": 498, "Ġby": 499, "ain": 500, "ant": 501, "os": 502, "igh": 503, "ĠE": 504, "ew": 505, "ity": 506, "Ġse": 507, "all": 508, "ment": 509, "Ġr": 510, "art": 511, "ame": 512, "ap": 513, "iv": 514, "Ġfrom": 515, "ies": 516, "end": 517, "ĠĠĠĠĠĠĠĠĠĠĠ": 518, "Ġnot": 519, "Ġself": 520, "\":": 521, "âĢĻ": 522, "ĠO": 523, "ive": 524, "Ġch": 525, "ud": 526, "oc": 527, "our": 528, "pl": 529, "ave": 530, "ust": 531, "ue": 532, "pt": 533, "ure": 534, "ĠJ": 535, "Ġsh": 536, "port": 537, "ass": 538, "ard": 539, "ip": 540, "con": 541, "Ġpl": 542, "ight": 543, "ge": 544, "out": 545, "Ġcan": 546, "--": 547, "Ġwe": 548, "ĠĠĠĠĠ": 549, "age": 550, "\"Ċ": 551, "Ġun": 552, "og": 553, "ial": 554, "ub": 555, "ine": 556, "cl": 557, "ell": 558, "Ġle": 559, "ac": 560, "ost": 561, "ect": 562, "ast": 563, "Ġhave": 564, "ex": 565, "The": 566, "ould": 567, "Ġthis": 568, "one": 569, "gh": 570, "ĠIn": 571, "ome": 572, "ich": 573, "ak": 574, "are": 575, "ok": 576, "ĠU": 577, "Ġim": 578, "ack": 579, "ert": 580, "iz": 581, "self": 582, "ĠâĢ": 583, "Ġhis": 584, "ide": 585, "Ġwor": 586, "ia": 587, "ated": 588, "ff": 589, "ĠĠĠĠĠĠĠĠĠĠĠĠĠĠĠĠ": 590, "ound": 591, "Ġk": 592, "ry": 593, "Ġyour": 594, "ult": 595, "):Ċ": 596, "ĠK": 597, "ire": 598, "Ġab": 599, "der": 600, "Ġif": 601, "Ġus": 602, "ear": 603, "##": 604, "ice": 605, "Ġad": 606, "orm": 607, "ong": 608, "ber": 609, "urn": 610, "ile": 611, "Ġj": 612, "able": 613, "Ġen": 614, "ions": 615, "Ġar": 616, "ough": 617, "ime": 618, "Ġcl": 619, "ĠSt": 620, "Ġall": 621, "ian": 622, "ther": 623, "ind": 624, "av": 625, "ep": 626, "Ġtheir": 627, "Ġhas": 628, "ib": 629, "ary": 630, "Ġcomp": 631, "ere": 632, "Ġwhe": 633, "ally": 634, "cc": 635, "so": 636, "Ġcont": 637, "Ġres": 638, "ign": 639, "ance": 640, "ie": 641, "ence": 642, "Ġwill": 643, "ail": 644, "fer": 645, "Ġbut": 646, "Ġwhich": 647, "ous": 648, "ake": 649, "int": 650, "Ġ{": 651, "per": 652, "to": 653, "Ġme": 654, "ĠTh": 655, "use": 656, "ĠV": 657, "ang": 658, "du": 659, "Ġout": 660, "ase": 661, "Ġdef": 662, "Ġgo": 663, "Ġup": 664, "ite": 665, "ook": 666, "ount": 667, "act": 668, "ord": 669, "Ġ#": 670, "âĢĻs": 671, "Ġap": 672, "Ġman": 673, "ish": 674, "Ġdo": 675, "ace": 676, "Ġmore": 677, "ans": 678, "Ġthey": 679, "ach": 680, "Ġsu": 681, "form": 682, "lo": 683, "Ġret": 684, "Ġhad": 685, "ĠCh": 686, "ath": 687, "Ġ-": 688, "get": 689, "',": 690, "Ġne": 691, "Ġher": 692, "Ġtr": 693, "Ġso": 694, "Ġwho": 695, "Ġwere": 696, "Ġone": 697, "Ġalso": 698, "),": 699, "own": 700, "ical": 701, "ress": 702, "mer": 703, "ĠY": 704, "ark": 705, "ition": 706, "ict": 707, "ren": 708, "erv": 709, "vel": 710, "ĠIt": 711, "Ġte": 712, "ru": 713, "ory": 714, "ree": 715, "ations": 716, "ĠĠĠĠĠĠĠĠĠĠĠĠĠĠĠ": 717, "te": 718, "..": 719, "(self": 720, "Ġother": 721, "Ġwork": 722, "ick": 723, "Ġ}": 724, "pro": 725, "ents": 726, "vers": 727, "ens": 728, "ob": 729, "cont": 730, "Ġ{Ċ": 731, "Ġper": 732, "ild": 733, "very": 734, "Ġ[": 735, "ater": 736, "ext": 737, "ll": 738, "gr": 739, "Ġabout": 740, "Ġqu": 741, "ata": 742, "Ġdis": 743, "Ġsp": 744, "Ġreturn": 745, "ose": 746, "Ġro": 747, "Ġsc": 748, "irst": 749, "Ġpart": 750, "ne": 751, "'s": 752, "ef": 753, "Ġev": 754, "Ġpre": 755, "ss": 756, "Ġtime": 757, "ĠHe": 758, "com": 759, "Ġmy": 760, "__": 761, "enc": 762, "ike": 763, "ely": 764, "ings": 765, "In": 766, "ors": 767, "Ġnew": 768, "ĠAn": 769, "reat": 770, "tern": 771, "clud": 772, "hed": 773, "Ġsome": 774, "amp": 775, "Ġgr": 776, "low": 777, "rit": 778, "Ġthem": 779, "section": 780, "ject": 781, "ink": 782, "ove": 783, "ov": 784, "Ġover": 785, "Ġplay": 786, "âĢĿ": 787, "Ġbeen": 788, "Ġkn": 789, "wn": 790, "Ġyear": 791, "Ġdes": 792, "ph": 793, "Ġag": 794, "ool": 795, "Ġpe": 796, "wo": 797, "Ġno": 798, "('": 799, "ays": 800, "ype": 801, "Ġshe": 802, "ise": 803, "fter": 804, "Ġits": 805, "Ġsa": 806, "Ġfirst": 807, "Ġany": 808, "pec": 809, "ade": 810, "oy": 811, "Ġcomm": 812, "Ġfe": 813, "ople": 814, "content": 815, "iel": 816, "Ġinto": 817, "ĠUn": 818, "Ġget": 819, "name": 820, "Ġwhen": 821, "ode": 822, "ĠâĢĵ": 823, "old": 824, "?Ċ": 825, "we": 826, "Ġthere": 827, "':": 828, "Ġwould": 829, "Ġrec": 830, "ft": 831, "ĠThis": 832, "Ġadd": 833, "Ġour": 834, "Ġoff": 835, "Ġinclud": 836, "rib": 837, "rough": 838, "Ġpr": 839, "ates": 840, "ual": 841, "**": 842, "Ġtra": 843, "ĠRe": 844, "lp": 845, "Ġacc": 846, "Ġcol": 847, "==": 848, "ield": 849, "Ġprov": 850, "_d": 851, ".\"Ċ": 852, "anc": 853, "les": 854, "]Ċ": 855, "iss": 856, "ific": 857, "Ġind": 858, "Ġimport": 859, "Ġhow": 860, "Ġsup": 861, "Ġlike": 862, "Ġra": 863, "ubl": 864, "----": 865, "eth": 866, "sh": 867, "cre": 868, "ious": 869, "ork": 870, "Ġass": 871, "ĠSe": 872, "_t": 873, "oup": 874, "Ġbec": 875, "ning": 876, "Ġ},Ċ": 877, "arg": 878, "ix": 879, ").": 880, "Ġco": 881, "ational": 882, "\",Ċ": 883, "Ġhelp": 884, "ful": 885, "()Ċ": 886, "ser": 887, "ĠĊ": 888, "Ġthan": 889, "Ġpeople": 890, "Ġsy": 891, "Ġop": 892, "Ġbu": 893, "ons": 894, "ied": 895, "oint": 896, "Ġem": 897, "ĠâĢľ": 898, "lect": 899, "Ġtwo": 900, "ased": 901, "Ġuse": 902, "erm": 903, "Ġ\"\"": 904, "\\n": 905, "Ġatt": 906, "Ġam": 907, "ener": 908, "Ġpos": 909, "Ġinter": 910, "ible": 911, "ug": 912, "hes": 913, "ood": 914, "cept": 915, "Ġwhat": 916, "Ġcre": 917, "Ġset": 918, "Ġunder": 919, "Ġprodu": 920, "app": 921, "Ġhim": 922, "Ġbet": 923, "ities": 924, "aw": 925, "._": 926, "ize": 927, "Ġmay": 928, "val": 929, "Ġact": 930, "hen": 931, "itt": 932, "cess": 933, "ange": 934, "uring": 935, "_s": 936, "ating": 937, "\\x": 938, "land": 939, "ont": 940, "ring": 941, "ax": 942, "ward": 943, "Ġthrough": 944, "ife": 945, "Ġonly": 946, "ited": 947, "_f": 948, "))Ċ": 949, "\",": 950, "key": 951, "Ġserv": 952, "iew": 953, "Ġcons": 954, "pect": 955, "oth": 956, "ock": 957, "Ġneed": 958, "âĢĵ": 959, "Ġel": 960, "####": 961, "row": 962, "_p": 963, "ient": 964, "Ġreg": 965, "io": 966, "ican": 967, "Ġafter": 968, "als": 969, "Ġrel": 970, "Ġmod": 971, "orn": 972, "ank": 973, "put": 974, "Ġmake": 975, "ics": 976, "Ġ_": 977, "Ġval": 978, "ily": 979, "Ġspec": 980, "Ġsuch": 981, "_m": 982, "any": 983, "Ġtest": 984, "Ġjust": 985, "Ġmost": 986, "gan": 987, "arch": 988, "Ġdif": 989, "ik": 990, "Ġrem": 991, "tt": 992, "Ġ+": 993, "Ġback": 994, "ng": 995, "ond": 996, "Ġloc": 997, "olog": 998, "Ġfil": 999, "chool": 1000, "Ġinst": 1001, "ices": 1002, "air": 1003, "Ġcould": 1004, "eng": 1005, "ple": 1006, "ular": 1007, "ĠAr": 1008, "ror": 1009, "Ġwell": 1010, "Ġent": 1011, "ower": 1012, "erson": 1013, "Ġwhere": 1014, "Ġsub": 1015, "Ġnum": 1016, "Ġthese": 1017, "ts": 1018, "Ġstud": 1019, "ĠCom": 1020, "ative": 1021, ".p": 1022, "fore": 1023, "Ġob": 1024, "red": 1025, "ident": 1026, "ollow": 1027, "['": 1028, "att": 1029, "ames": 1030, "Ġph": 1031, "atch": 1032, ".s": 1033, "ec": 1034, "Ġsaid": 1035, "ĠWe": 1036, "its": 1037, "ause": 1038, "ek": 1039, "(\"": 1040, "Ġused": 1041, "Ġfun": 1042, "ms": 1043, "ract": 1044, "Ġsm": 1045, "Ġthen": 1046, "ures": 1047, "rue": 1048, "']": 1049, "Ġshould": 1050, "Ġinv": 1051, "',Ċ": 1052, "hip": 1053, "Ġfin": 1054, "ys": 1055, "Ġ%": 1056, "Ġbl": 1057, "stem": 1058, "ues": 1059, "oot": 1060, "Ġknow": 1061, "Ġmany": 1062, "aking": 1063, "Ġstr": 1064, "ense": 1065, "ĠAl": 1066, "Ġexp": 1067, "')Ċ": 1068, "ale": 1069, "Ġrequ": 1070, "Ġname": 1071, "velop": 1072, "ility": 1073, "ĠNew": 1074, "_c": 1075, "ments": 1076, "),Ċ": 1077, "Ġyears": 1078, "els": 1079, "ason": 1080, "way": 1081, ".d": 1082, "pr": 1083, "Ġpol": 1084, "ER": 1085, "other": 1086, "ash": 1087, "ier": 1088, "Ġfl": 1089, "ins": 1090, "ars": 1091, "yp": 1092, "day": 1093, "Ġend": 1094, "read": 1095, "||": 1096, "Ġint": 1097, "ience": 1098, "Ġac": 1099, "Ġstart": 1100, "the": 1101, "ced": 1102, "ams": 1103, "ribut": 1104, "Ġlook": 1105, "Ġagain": 1106, "âĢĻt": 1107, "az": 1108, "ĠPro": 1109, "Ġcall": 1110, "_l": 1111, "St": 1112, "Ġeff": 1113, "Ġmade": 1114, "Ġevery": 1115, "ull": 1116, "Ġfollow": 1117, "ting": 1118, "co": 1119, "ouse": 1120, "Ġmem": 1121, "Ġdist": 1122, "ĠLe": 1123, "Ġmed": 1124, "assert": 1125, "Ġtrans": 1126, "uch": 1127, ".m": 1128, "irect": 1129, "Ġlist": 1130, "Ġown": 1131, "Ġform": 1132, "Ġmin": 1133, ".\"": 1134, "ner": 1135, "ton": 1136, "ivers": 1137, "from": 1138, "Ġgu": 1139, "alth": 1140, "Ġser": 1141, "Ġdiffer": 1142, "ublic": 1143, "ah": 1144, "iet": 1145, "Th": 1146, "ision": 1147, "Ġhigh": 1148, "ĠAmer": 1149, ".assert": 1150, "Ġbefore": 1151, "Ġpres": 1152, "uth": 1153, "ences": 1154, "ten": 1155, "au": 1156, "ource": 1157, "Ġfound": 1158, "iness": 1159, "ished": 1160, "ional": 1161, "Ġwhile": 1162, "Ġbr": 1163, "Ġdown": 1164, "cond": 1165, "Ġlong": 1166, "Ġway": 1167, "ĠWh": 1168, "ines": 1169, "Ġwant": 1170, "ature": 1171, "ĠDe": 1172, "led": 1173, "ween": 1174, "Ġche": 1175, "ble": 1176, "formation": 1177, "arn": 1178, "def": 1179, "ired": 1180, "Ġed": 1181, "sw": 1182, "ĠNone": 1183, "Ġart": 1184, "Re": 1185, "istant": 1186, "ince": 1187, "ON": 1188, "Ġeven": 1189, "...Ċ": 1190, "ĉĉ": 1191, "Ġeach": 1192, "Ġresult": 1193, "Ġbeing": 1194, "Ġdet": 1195, "Ġpass": 1196, "Ġdata": 1197, "//": 1198, "ĠCan": 1199, "pos": 1200, "ather": 1201, "Ġfam": 1202, "Ġcur": 1203, "'Ċ": 1204, "Ġsign": 1205, "Ġ==": 1206, "Ġ:": 1207, "ven": 1208, "let": 1209, "man": 1210, "ctions": 1211, "Ġshow": 1212, "Ġdevelop": 1213, "Ġdid": 1214, "ĠSh": 1215, "Ġbus": 1216, "Ġsur": 1217, ".get": 1218, "Ġnow": 1219, "ness": 1220, "Ġsee": 1221, "cent": 1222, "ĠYou": 1223, "Ġlife": 1224, "chn": 1225, "alk": 1226, "Ġbetween": 1227, "par": 1228, "_id": 1229, "line": 1230, "Ġ\"\"\"Ċ": 1231, "oh": 1232, "Ġperson": 1233, "add": 1234, "Ġhand": 1235, "User": 1236, "ript": 1237, "Ġmark": 1238, "ball": 1239, "ĠIf": 1240, "ral": 1241, "ized": 1242, "Ġvar": 1243, "Ġread": 1244, "Ġ&": 1245, "Ġvery": 1246, "Ġbel": 1247, "ider": 1248, "Ġmon": 1249, "Ġ$": 1250, "Ġext": 1251, "ask": 1252, "Ġposs": 1253, "vent": 1254, "ule": 1255, "qual": 1256, "ĠAd": 1257, "son": 1258, "Ġins": 1259, "Ġcount": 1260, "IN": 1261, "Ġapp": 1262, "ever": 1263, "Ass": 1264, "Ġfind": 1265, "Ġday": 1266, "Ġgood": 1267, "ages": 1268, "Ġlead": 1269, "Ġduring": 1270, "ator": 1271, "Ġworld": 1272, "Ġgreat": 1273, "Ġright": 1274, "ES": 1275, "bs": 1276, "Ġdec": 1277, "Ġsystem": 1278, "by": 1279, "raph": 1280, "Ġexper": 1281, "Ġcar": 1282, "ces": 1283, "outh": 1284, "ists": 1285, "Ġdoes": 1286, "class": 1287, "Ġsk": 1288, "ually": 1289, "Ġopt": 1290, "ann": 1291, "Ġcent": 1292, "Ġrun": 1293, "angu": 1294, "ĠShe": 1295, "rent": 1296, "ĠAnd": 1297, "gg": 1298, "uc": 1299, "arm": 1300, "alse": 1301, "ural": 1302, "ĠAs": 1303, "ĠCl": 1304, "Ġdesign": 1305, "Ġsim": 1306, "Ġprogr": 1307, "Ġcommun": 1308, "Ġsupport": 1309, "Ġconf": 1310, "ved": 1311, "Ġmus": 1312, "Ġcare": 1313, "Assistant": 1314, "Ġgroup": 1315, "Ġclass": 1316, "Ġinformation": 1317, "Ġstate": 1318, "view": 1319, "Ġchild": 1320, "ĠThey": 1321, "ric": 1322, "Ġpar": 1323, "Ġgener": 1324, "Ġdifferent": 1325, ".f": 1326, "nt": 1327, "ury": 1328, "ern": 1329, "Ġwrit": 1330, "imes": 1331, "ustom": 1332, "ox": 1333, "Ġbecause": 1334, "ined": 1335, "Ġi": 1336, "ĠFor": 1337, "Ġmuch": 1338, "ault": 1339, "Ġav": 1340, "ĠCol": 1341, "work": 1342, "min": 1343, "iqu": 1344, "ives": 1345, "Ġthree": 1346, "Ġnumber": 1347, "ĠQ": 1348, "ters": 1349, "pon": 1350, "ruct": 1351, "ody": 1352, "Ġopen": 1353, ".t": 1354, "Ġtake": 1355, "str": 1356, "cript": 1357, "orth": 1358, "gy": 1359, "ery": 1360, "Ġchar": 1361, "Ġelse": 1362, "ey": 1363, "riend": 1364, "Ġteam": 1365, "olut": 1366, "Ġsame": 1367, "ement": 1368, "vern": 1369, "Ġ}Ċ": 1370, "Ġincluding": 1371, "ĠAmerican": 1372, "Ġboth": 1373, "Ġbuild": 1374, "aj": 1375, "iversity": 1376, ".c": 1377, "Ġinf": 1378, "ĠInd": 1379, "Ġlast": 1380, "bers": 1381, "Ġthink": 1382, "Ġschool": 1383, "Ġear": 1384, "An": 1385, "ethod": 1386, "Ġthose": 1387, "Ġtry": 1388, "Ġhere": 1389, "Ġpop": 1390, "!Ċ": 1391, "Ġdon": 1392, "Ġhome": 1393, "ample": 1394, "anguage": 1395, "ants": 1396, "plic": 1397, "Ġmain": 1398, "ĠZ": 1399, "Ġbusiness": 1400, "Ġbest": 1401, "ology": 1402, "ccess": 1403, "Ġcour": 1404, "ĠEx": 1405, "akes": 1406, "Ex": 1407, "swer": 1408, "ets": 1409, "Ġhead": 1410, "_name": 1411, "Ġusing": 1412, "'t": 1413, "itle": 1414, "version": 1415, "Ġcap": 1416, "ee": 1417, "Ġprovid": 1418, "Ġbook": 1419, "Ġ*": 1420, "AR": 1421, "Ġsoc": 1422, "ember": 1423, "Ġest": 1424, "Ġrele": 1425, "Ġsom": 1426, "inal": 1427, "Ġaround": 1428, "ĠFr": 1429, "Ġsecond": 1430, "til": 1431, "Ġtechn": 1432, "Ġrep": 1433, "Ġthough": 1434, "ĠHow": 1435, "Ġreal": 1436, "ĠSc": 1437, "Ġproduct": 1438, "Er": 1439, "Ġx": 1440, "AT": 1441, "rem": 1442, "ital": 1443, "uss": 1444, "Ġprof": 1445, "Ġbro": 1446, "ared": 1447, ".com": 1448, "iving": 1449, "ross": 1450, "Ġcontin": 1451, "Ġplace": 1452, "Ġvis": 1453, "Ġwater": 1454, "iver": 1455, "Ġdirect": 1456, "Ġprocess": 1457, "-b": 1458, "='": 1459, "Ġtell": 1460, "Ġconst": 1461, "Ġpoint": 1462, "Ġke": 1463, "urch": 1464, "Ġtop": 1465, "ger": 1466, "====": 1467, "(Ċ": 1468, "Ġdel": 1469, "Ġsing": 1470, "ength": 1471, "ote": 1472, "ware": 1473, "ĠGr": 1474, "Ġhealth": 1475, "Ġsmall": 1476, "Ġbre": 1477, "ĠCon": 1478, "Ġdep": 1479, "Ġprovide": 1480, "Error": 1481, "Ġcle": 1482, "Ġpower": 1483, "=\"": 1484, "Ġallow": 1485, "of": 1486, "Ġele": 1487, "ism": 1488, "_n": 1489, "Ġwom": 1490, "Ġperform": 1491, "eb": 1492, "Ġweek": 1493, "True": 1494, "ohn": 1495, "Ġkey": 1496, "ling": 1497, "Ġincre": 1498, "],": 1499, "ĠPl": 1500, "Ġvalue": 1501, "ify": 1502, "Ġpossible": 1503, "ape": 1504, "Ġcustom": 1505, "Ġappro": 1506, "Ġfew": 1507, "}Ċ": 1508, "istory": 1509, "Ġimp": 1510, "ĠSp": 1511, "Ġstill": 1512, "Ġoper": 1513, "Ġcr": 1514, "\")Ċ": 1515, "ĠIs": 1516, "ĠBut": 1517, "Ġappe": 1518, "Ġeng": 1519, "rop": 1520, "iven": 1521, "ĠEng": 1522, "-f": 1523, "Ġorgan": 1524, "ley": 1525, "ister": 1526, "riv": 1527, "ray": 1528, "aving": 1529, "ining": 1530, "lish": 1531, "Ġline": 1532, "Ġmust": 1533, "Ġuntil": 1534, "ele": 1535, "Ġfr": 1536, "ĠOn": 1537, "por": 1538, "ĠUnited": 1539, "less": 1540, "Ġwon": 1541, "istr": 1542, "Ġmet": 1543, "Ġeffect": 1544, "Ġold": 1545, ".âĢĿ": 1546, "ived": 1547, "args": 1548, "ittle": 1549, "_st": 1550, "mp": 1551, "It": 1552, "Ġrecord": 1553, "Ġcreate": 1554, "-s": 1555, "ways": 1556, "ential": 1557, "Ch": 1558, "ina": 1559, "oard": 1560, "Ġprom": 1561, "Ġsl": 1562, "Ġprogram": 1563, "ds": 1564, "ument": 1565, "reen": 1566, "rap": 1567, "Ġagainst": 1568, "Ġeas": 1569, "Ġpartic": 1570, "Ġrece": 1571, ".S": 1572, "Ġfamily": 1573, "ĠMar": 1574, "ute": 1575, "ron": 1576, "Ġanswer": 1577, "IT": 1578, "()": 1579, "OR": 1580, "ĠCount": 1581, "âĢľ": 1582, "be": 1583, "enn": 1584, "Ġ\\": 1585, "ott": 1586, "rist": 1587, "ivid": 1588, "Ġadv": 1589, "Ġer": 1590, "Ġfield": 1591, "Ġlink": 1592, "yn": 1593, "mber": 1594, "ĠUniversity": 1595, "_in": 1596, "Ġgame": 1597, "Ġwithout": 1598, "ertain": 1599, "lock": 1600, "tain": 1601, "estion": 1602, "Ġsever": 1603, "Ġref": 1604, "atic": 1605, "Ġmov": 1606, "Ġpat": 1607, ").Ċ": 1608, "Ġfeel": 1609, "Ġfact": 1610, "ped": 1611, "Ġpost": 1612, "ries": 1613, "Ġfollowing": 1614, "_b": 1615, "Ġknown": 1616, "rol": 1617, "Ã©": 1618, "Ġstand": 1619, "ĠBe": 1620, "ior": 1621, "ately": 1622, "Ġtype": 1623, "ttp": 1624, "ality": 1625, "Ġmusic": 1626, "ium": 1627, "ves": 1628, "Ġmanag": 1629, "ission": 1630, "Ġseason": 1631, "import": 1632, "EN": 1633, "Ġ`": 1634, "ization": 1635, "ats": 1636, "Ġproject": 1637, "iron": 1638, "ified": 1639, "ems": 1640, ",\"": 1641, "Ġfour": 1642, "Ġpublic": 1643, "Ġfoot": 1644, "aut": 1645, "AN": 1646, "Ġmarket": 1647, "Ġ\"\"\"": 1648, "Ġexpl": 1649, "ĠThere": 1650, "ĠPh": 1651, "ĠOr": 1652, "ponse": 1653, "load": 1654, "Ġfile": 1655, "ploy": 1656, "Ġsuccess": 1657, ";Ċ": 1658, "lex": 1659, "itional": 1660, "Ġcompany": 1661, "und": 1662, "ĠComm": 1663, "Ġfriend": 1664, "vernment": 1665, "oci": 1666, "Ġlo": 1667, "Ġmen": 1668, "Ġlater": 1669, "uck": 1670, "Ġplayers": 1671, "Ġ<": 1672, "ĠAll": 1673, "ains": 1674, "Ġorder": 1675, ".,": 1676, "etwork": 1677, "cur": 1678, "Ġwin": 1679, "comm": 1680, "ried": 1681, "oss": 1682, "Ġoffer": 1683, "ĠBl": 1684, "ev": 1685, "che": 1686, "ty": 1687, "rite": 1688, "ret": 1689, "Ġlocal": 1690, "opy": 1691, "orld": 1692, "Ġrest": 1693, "Ġcurrent": 1694, "stand": 1695, "ĠJohn": 1696, "fo": 1697, "ths": 1698, "my": 1699, "Ġcor": 1700, "Ġanother": 1701, "Ġreport": 1702, "iety": 1703, "Equal": 1704, "url": 1705, "arge": 1706, "],Ċ": 1707, "Ġarea": 1708, "Ġmat": 1709, "Ġinterest": 1710, "requ": 1711, "ency": 1712, "Ġlevel": 1713, "Ġorig": 1714, "ww": 1715, "uthor": 1716, "Ġkeep": 1717, "Ġplan": 1718, "aster": 1719, "une": 1720, "Ġfree": 1721, "Ġlove": 1722, "ailable": 1723, "Ġtoo": 1724, "bum": 1725, "Ġfilm": 1726, "yle": 1727, "ternal": 1728, "Ġexcept": 1729, "Ġlog": 1730, "Ġarg": 1731, "This": 1732, "Ġnext": 1733, "ferences": 1734, "back": 1735, "Ġwithin": 1736, "])Ċ": 1737, "Ġprint": 1738, "Ġsince": 1739, "Ġiss": 1740, "Ġcharact": 1741, "Ġinclude": 1742, "Ġair": 1743, "Ġspe": 1744, "ope": 1745, "Ġ||": 1746, "Ġevent": 1747, "Wh": 1748, "ream": 1749, "mb": 1750, "ograph": 1751, "We": 1752, "Ġgoing": 1753, "gin": 1754, "ĠTr": 1755, "Ġservice": 1756, "Ġlittle": 1757, "Ġturn": 1758, "type": 1759, "ised": 1760, "Ġhapp": 1761, "Ġpo": 1762, "ird": 1763, "Ġreally": 1764, "Ġuser": 1765, "None": 1766, "Ġassert": 1767, "Ġlight": 1768, "Ġimpro": 1769, "Ġsay": 1770, "pert": 1771, "ĠMay": 1772, "Ġnever": 1773, "ush": 1774, "Ġseveral": 1775, "met": 1776, "Ġhum": 1777, "wards": 1778, "inc": 1779, "br": 1780, "ĠStates": 1781, "resent": 1782, "Ġlet": 1783, "Ġpract": 1784, "Ġaff": 1785, "Ġtem": 1786, "Ġconsider": 1787, "cription": 1788, "Ġchang": 1789, "Ġland": 1790, "augh": 1791, "Ġhouse": 1792, "ples": 1793, "ĠCounty": 1794, "ulation": 1795, "ething": 1796, "Ġide": 1797, "uro": 1798, "Ġcalled": 1799, "::": 1800, "Ġ.": 1801, "Ġterm": 1802, "ique": 1803, "Ġalways": 1804, "sc": 1805, "Ġ__": 1806, "thing": 1807, "Ġnear": 1808, "play": 1809, "Ġside": 1810, "TI": 1811, "Ġspecific": 1812, "Ġalong": 1813, "Ġaccess": 1814, "ips": 1815, "ai": 1816, "ague": 1817, "AL": 1818, "Ġcheck": 1819, "Ġdisc": 1820, "-d": 1821, "ĠCar": 1822, "ĠBr": 1823, "med": 1824, "Ġsocial": 1825, "ane": 1826, "Ġlaw": 1827, "Ġcome": 1828, "init": 1829, "Ġann": 1830, "ĠSo": 1831, "lease": 1832, "Ġactiv": 1833, "viron": 1834, "Ġpresent": 1835, "Ġfac": 1836, "--------": 1837, "ĠAt": 1838, "ended": 1839, "Ġve": 1840, "value": 1841, "-t": 1842, "arget": 1843, "atus": 1844, "idd": 1845, "Ġleg": 1846, "ajor": 1847, "ĠEn": 1848, "af": 1849, "Opt": 1850, "ories": 1851, "Ġmar": 1852, "Ġbased": 1853, "nect": 1854, "Ġgrow": 1855, "eter": 1856, "Ġdr": 1857, "Ġinc": 1858, "ted": 1859, "Ġexperience": 1860, ".l": 1861, "Ġrese": 1862, "iter": 1863, "essage": 1864, "ica": 1865, "Ġ/": 1866, "ession": 1867, "ored": 1868, "ump": 1869, ".assertEqual": 1870, "Âł": 1871, "ney": 1872, "Ġu": 1873, "Ġcity": 1874, "set": 1875, "Ġleft": 1876, "ĠX": 1877, "Ġ|": 1878, "ene": 1879, "Ġput": 1880, "ially": 1881, "He": 1882, "here": 1883, "ients": 1884, "Ġexpect": 1885, "Ġtext": 1886, "Ġdetail": 1887, "Ġz": 1888, "ention": 1889, "Ġavailable": 1890, "Ġsal": 1891, "\"\"Ċ": 1892, "Ġes": 1893, "icense": 1894, "oin": 1895, "ler": 1896, "Ġ>": 1897, "Ġbetter": 1898, "iam": 1899, "Ġsong": 1900, "ST": 1901, "Ġcho": 1902, "ternational": 1903, "Ġcost": 1904, "itions": 1905, "Ġcolle": 1906, "ĠMan": 1907, "Ġalbum": 1908, "...": 1909, "ources": 1910, "ases": 1911, "test": 1912, "ination": 1913, "://": 1914, "ours": 1915, "Ġmaking": 1916, "Ġthings": 1917, "Ġchildren": 1918, "reg": 1919, "itive": 1920, "ically": 1921, "Ġsent": 1922, "Ġmight": 1923, "fig": 1924, "mod": 1925, "Ġversion": 1926, "Ġask": 1927, "Ġfull": 1928, "')": 1929, ",âĢĿ": 1930, "Ġdev": 1931, "Ġdem": 1932, "ĠUS": 1933, "ilt": 1934, "Ġredu": 1935, "rip": 1936, "sp": 1937, "ĠSchool": 1938, "ideo": 1939, "Ġocc": 1940, "amed": 1941, "Ġoften": 1942, "ently": 1943, "ĠĠĠĠĠĠ": 1944, "Ġimportant": 1945, ".st": 1946, "ĠI'": 1947, "Ġ@": 1948, "util": 1949, "Ġbecame": 1950, "Ġseries": 1951, "Ġsomething": 1952, "RE": 1953, "ĠAust": 1954, "Ġestab": 1955, "ĠCent": 1956, "Ġdra": 1957, "ĠPr": 1958, "ĠGo": 1959, "Ġgive": 1960, "Ġcreat": 1961, "Ġbeh": 1962, "Ġobject": 1963, "umn": 1964, "Ġgl": 1965, "edia": 1966, "Ġsit": 1967, "ĠNational": 1968, "oney": 1969, "Ġelect": 1970, "ĠWorld": 1971, "illion": 1972, "Ġfood": 1973, "reet": 1974, "ference": 1975, "Ġresp": 1976, "ividual": 1977, "ĠYork": 1978, "not": 1979, "olution": 1980, "ending": 1981, "Ġmil": 1982, "Ġfunction": 1983, "As": 1984, "Ġview": 1985, "word": 1986, "Ġsure": 1987, "Ġless": 1988, "Ġoffic": 1989, "ĠPol": 1990, "atures": 1991, "Ġwebs": 1992, "ĠTrue": 1993, "ĠĠĠĠĠĠĠĠĠ": 1994, "Ġlarge": 1995, "used": 1996, "Ġcamp": 1997, "Ġbelie": 1998, "Ġtrad": 1999, "Ġhard": 2000, "uff": 2001, "uly": 2002, "Ġpot": 2003, "ĠCo": 2004, "-l": 2005, "Ġtoget": 2006, "Ġtogether": 2007, "ively": 2008, "########": 2009, "Ġaut": 2010, "Ġrange": 2011, "Ġdays": 2012, "Ġstep": 2013, "ĠRes": 2014, "Ġshort": 2015, "Ġstory": 2016, "ither": 2017, "vironment": 2018, "Ġbir": 2019, "Ġmembers": 2020, "(d": 2021, "Ġstudents": 2022, "ording": 2023, "Ġmethod": 2024, "yl": 2025, "âĢĶ": 2026, "irl": 2027, "ability": 2028, "org": 2029, "ĠChrist": 2030, "Ġpay": 2031, "Ġable": 2032, "Ġsol": 2033, "Ġbody": 2034, "Ġindust": 2035, "amb": 2036, "Ġinvest": 2037, ".h": 2038, "Ġla": 2039, ".n": 2040, "AS": 2041, "Options": 2042, "ateg": 2043, "urs": 2044, "0x": 2045, "ony": 2046, "ops": 2047, "date": 2048, "Ġexample": 2049, "file": 2050, "Ġeduc": 2051, "duct": 2052, "me": 2053, "Ġport": 2054, "side": 2055, "Ġcase": 2056, "Ġgovernment": 2057, "ĠWar": 2058, "aly": 2059, "Ġcult": 2060, "ĠTo": 2061, "cer": 2062, "Ġenc": 2063, "aring": 2064, "Ġnon": 2065, "ged": 2066, "ĠNo": 2067, "Ġmove": 2068, "user": 2069, "=True": 2070, "ĠAp": 2071, ".âĢĿĊ": 2072, "ze": 2073, "ills": 2074, "ots": 2075, "Ġgiven": 2076, "Ġlim": 2077, "Ġcourse": 2078, "conom": 2079, "Ġdeath": 2080, "ml": 2081, "aim": 2082, "ĠâĢĶ": 2083, "ches": 2084, "Ġdevelopment": 2085, "Ġservices": 2086, "(s": 2087, "aterial": 2088, "Ġpolit": 2089, "Ġfore": 2090, "Ġyoung": 2091, "Ġindividual": 2092, "Ġyes": 2093, "ypes": 2094, "Ġsum": 2095, "ead": 2096, "Ġben": 2097, "ume": 2098, "ĠHowever": 2099, "Ġearly": 2100, "ĠTe": 2101, "Ġwar": 2102, "ait": 2103, "head": 2104, "Ġpain": 2105, "oid": 2106, "Ġsoft": 2107, "ĠBrit": 2108, "alf": 2109, "Ġtimes": 2110, "Ġcompet": 2111, "adata": 2112, "irt": 2113, "Ġaway": 2114, "Ġproble": 2115, "for": 2116, "icle": 2117, "Ġcond": 2118, "Ġfootball": 2119, "ards": 2120, "ĠPar": 2121, "ched": 2122, "ourn": 2123, "Pro": 2124, "ued": 2125, "-p": 2126, "Ġspecial": 2127, "ole": 2128, "Ġsw": 2129, "ese": 2130, ".add": 2131, "ĠSouth": 2132, "uture": 2133, "Ġtook": 2134, "Ġos": 2135, "Ġchange": 2136, "Ġident": 2137, "Ġpubl": 2138, "vious": 2139, "Ġ('": 2140, "Ġcommunity": 2141, "Ġener": 2142, "itor": 2143, "ĠThese": 2144, "LE": 2145, "ID": 2146, "place": 2147, "Ġmult": 2148, "elt": 2149, "On": 2150, "ache": 2151, "ping": 2152, "lob": 2153, "Ġraise": 2154, ".app": 2155, "ĠWhen": 2156, "Ġgot": 2157, "Ġbig": 2158, "Ġcover": 2159, "right": 2160, "Ġemploy": 2161, "Ġworking": 2162, "opt": 2163, "Ġ[Ċ": 2164, "Ġfoc": 2165, "aff": 2166, ".**": 2167, "Ġmeet": 2168, "Ġpast": 2169, "ung": 2170, "Ġrequest": 2171, "ster": 2172, "Ġexc": 2173, "ained": 2174, "ising": 2175, "Ġcountry": 2176, "Ġcame": 2177, "iod": 2178, "wh": 2179, "Ġsingle": 2180, "Ġbecome": 2181, "ured": 2182, "ĠFalse": 2183, "Ġjob": 2184, "Ġcontent": 2185, "Ġlearn": 2186, "ering": 2187, "Ġlinks": 2188, "ison": 2189, "ables": 2190, "amples": 2191, "vert": 2192, "cle": 2193, "Ġmean": 2194, "oon": 2195, "Ġtrack": 2196, "rew": 2197, "Ġplayed": 2198, "isk": 2199, "Ġpath": 2200, "ma": 2201, "=None": 2202, "lu": 2203, "Ġmajor": 2204, "Ġvol": 2205, "Ġapplic": 2206, "Ġunderstand": 2207, "ĠGe": 2208, "Ġred": 2209, "Ġpersonal": 2210, "icult": 2211, "atural": 2212, "ĠJan": 2213, "Ġonline": 2214, "ĠCal": 2215, "stance": 2216, "Ġwebsite": 2217, "Ġtown": 2218, "Ġwomen": 2219, "-c": 2220, "istor": 2221, "Ġinvol": 2222, "ĠCity": 2223, "Ġnight": 2224, "Ġhistory": 2225, "Ġtot": 2226, "odes": 2227, "ises": 2228, "yth": 2229, "ĠEuro": 2230, "ĠGu": 2231, "Ġsignific": 2232, "Ġlab": 2233, "Ġmedia": 2234, "Ġquestion": 2235, "ĠGerm": 2236, "aces": 2237, "Ġroom": 2238, "ply": 2239, "Ġhaving": 2240, "Ġenergy": 2241, "ĠBro": 2242, "Ġprot": 2243, "ffic": 2244, "osp": 2245, ".b": 2246, "Ġothers": 2247, "Ġens": 2248, "ably": 2249, "Ġcommon": 2250, "utes": 2251, "ĠEd": 2252, "ids": 2253, "ama": 2254, "Ġequ": 2255, "Ġsite": 2256, "ari": 2257, "Ġhost": 2258, "ians": 2259, "Ġformer": 2260, "-m": 2261, "Ġinit": 2262, "Un": 2263, ".C": 2264, "__(": 2265, "Ġmaterial": 2266, "Ġsound": 2267, "Ġcontrol": 2268, "ĠState": 2269, "Ġresearch": 2270, "AC": 2271, "plement": 2272, "aper": 2273, "indow": 2274, "_re": 2275, "Ġdoc": 2276, "avor": 2277, "Ġchall": 2278, "icy": 2279, "#Ċ": 2280, "arent": 2281, "ging": 2282, "Test": 2283, "Ġvill": 2284, "ĠHis": 2285, ".w": 2286, "urther": 2287, "ental": 2288, "SE": 2289, "ĠNorth": 2290, "ĠThat": 2291, "References": 2292, "ĠAss": 2293, "Ġbegan": 2294, "rain": 2295, "ols": 2296, "joy": 2297, "Ġ)Ċ": 2298, "Ġauthor": 2299, "idge": 2300, "Ġvisit": 2301, "empt": 2302, "umb": 2303, "resh": 2304, "Ġwent": 2305, "ĠAug": 2306, "Ġgames": 2307, "title": 2308, "Ġphot": 2309, "illed": 2310, "Ġbuilding": 2311, "most": 2312, "Ġren": 2313, "ones": 2314, "ibr": 2315, "Ġdesc": 2316, "ailed": 2317, "Ġimpact": 2318, "Ġbas": 2319, "ĠAm": 2320, "ino": 2321, "IC": 2322, "ival": 2323, ".g": 2324, "roll": 2325, "ready": 2326, "Ġlot": 2327, "âĢĻre": 2328, "Ġaccount": 2329, "othes": 2330, "Ġhold": 2331, "Ġenvironment": 2332, "Ġclos": 2333, "hern": 2334, "ances": 2335, "``": 2336, "ception": 2337, "ĠAustral": 2338, ".append": 2339, "ift": 2340, "_type": 2341, "Ġcomb": 2342, "uary": 2343, "ports": 2344, "Ġcharacter": 2345, "ights": 2346, "Ġvarious": 2347, "artment": 2348, "Ġdri": 2349, "_h": 2350, "vision": 2351, "Ġbreak": 2352, "ĠAdd": 2353, "ille": 2354, "Ġprofess": 2355, "ĠHere": 2356, "ĠLicense": 2357, "ĠWill": 2358, "ĠFl": 2359, "iction": 2360, "Ad": 2361, "Ġspace": 2362, "Ġmind": 2363, "Ġey": 2364, "ĠAfter": 2365, "Ġbenef": 2366, "ĠMin": 2367, "over": 2368, "Ġstarted": 2369, "ĠWith": 2370, "action": 2371, "ĠVal": 2372, "Al": 2373, "Ġrelations": 2374, "aken": 2375, "Ġcareer": 2376, "object": 2377, "Ġtw": 2378, "Com": 2379, "Ġimprove": 2380, "ĠOne": 2381, "oud": 2382, "heck": 2383, "Ġaud": 2384, "now": 2385, "ĠEurope": 2386, "{Ċ": 2387, "If": 2388, "Ġflo": 2389, "Ġsugg": 2390, "Ġdue": 2391, "([": 2392, "ĠReg": 2393, "though": 2394, "Ġlanguage": 2395, "ands": 2396, "ĠOct": 2397, "Ġmodel": 2398, "n't": 2399, "AM": 2400, "ĠBy": 2401, "Ġwalk": 2402, "(t": 2403, "ada": 2404, "Ġrepresent": 2405, "False": 2406, "Ġet": 2407, "Ġsix": 2408, "Ġfar": 2409, "Ġamong": 2410, "Ġvideo": 2411, "Ġkind": 2412, "ĠSy": 2413, "_con": 2414, "Ġdeb": 2415, "sel": 2416, "pril": 2417, "Ġfive": 2418, "Ġbo": 2419, "ruction": 2420, "Ġess": 2421, "UT": 2422, "ptember": 2423, "face": 2424, "Ġtrue": 2425, "Ġproducts": 2426, "(p": 2427, "unic": 2428, "ĠGener": 2429, "\".": 2430, "Ġrequired": 2431, "atter": 2432, "Ġclear": 2433, "Ġpri": 2434, "ribute": 2435, "cing": 2436, "Ġresponse": 2437, "Ġonce": 2438, "ilar": 2439, "oll": 2440, "ĠBar": 2441, "atform": 2442, "Ġfeatures": 2443, "(f": 2444, "Ġsaf": 2445, "Con": 2446, "aps": 2447, "Ġperiod": 2448, "Ġsignificant": 2449, "lete": 2450, "Ġmag": 2451, "perty": 2452, "ogn": 2453, "Ġlow": 2454, "Ġtalk": 2455, "fect": 2456, "Ġit's": 2457, "source": 2458, "ober": 2459, "Ġpack": 2460, "ĠMe": 2461, "ctor": 2462, "|Ċ": 2463, "acy": 2464, "ĠMarch": 2465, "Ġever": 2466, "Ġbase": 2467, "Ġrole": 2468, "cy": 2469, "ĠHar": 2470, "ĠâĢĺ": 2471, "ĠWhat": 2472, "Ġparticular": 2473, "apan": 2474, "Ġmoney": 2475, "Ġreleased": 2476, "Ġdefault": 2477, "Ġcomplet": 2478, "Ġtarget": 2479, "Ġreceived": 2480, "ĠDo": 2481, "ED": 2482, "Ġneeds": 2483, "Ġhuman": 2484, "Ġlarg": 2485, "(n": 2486, "ĠAugust": 2487, "Ġtreat": 2488, "Cl": 2489, "Ġ],Ċ": 2490, "rack": 2491, ".set": 2492, "ered": 2493, "chie": 2494, "Ġcal": 2495, "ĠJune": 2496, "de": 2497, "Ġmot": 2498, "Ġacross": 2499, "Ġmember": 2500, "Ġmom": 2501, "Ġtotal": 2502, "Ġstrong": 2503, "Ġworks": 2504, "Ġ{'": 2505, "Ġeconom": 2506, "stit": 2507, "Ġalready": 2508, "Ġsuggest": 2509, "Ġeither": 2510, "ampions": 2511, "rec": 2512, "ĠGod": 2513, "ression": 2514, "Ġlooking": 2515, "ĠMc": 2516, "Ġheart": 2517, "():Ċ": 2518, "Ġabove": 2519, "[\"": 2520, "ĠMy": 2521, "Ġperformance": 2522, "off": 2523, "ĠAf": 2524, "Ġlocated": 2525, ".path": 2526, "portun": 2527, "Ġsense": 2528, "ET": 2529, "Ġoptions": 2530, "Ġsize": 2531, "ĠSection": 2532, "Ġlive": 2533, "Ġhig": 2534, "Ġmeans": 2535, "ĠKing": 2536, "Ġcrit": 2537, "aur": 2538, "Ġstudy": 2539, "IS": 2540, "ĠRo": 2541, "Ġheld": 2542, "Ġminutes": 2543, "ilities": 2544, "ĠColle": 2545, "(l": 2546, "Ġaddress": 2547, "ĠJuly": 2548, "ules": 2549, "RO": 2550, "Ġfinal": 2551, "Ġaction": 2552, "Ġdest": 2553, "Ġmix": 2554, "uation": 2555, "ango": 2556, "For": 2557, "ened": 2558, "rench": 2559, "Ġdone": 2560, "aced": 2561, "with": 2562, "tic": 2563, "Ġconc": 2564, "Ġthought": 2565, "Ġphys": 2566, "ĠHer": 2567, "ĠSup": 2568, "Ġcertain": 2569, "Ġvillage": 2570, "curity": 2571, "ĠEnglish": 2572, "Ġstore": 2573, "Ġbeaut": 2574, "You": 2575, "Ġpopular": 2576, "Ġbuilt": 2577, "raft": 2578, "ĠBritish": 2579, "_v": 2580, "Ġupon": 2581, "Ġexist": 2582, "Ġtoday": 2583, "Ġstruct": 2584, "Ġresults": 2585, "ecut": 2586, "ĠHigh": 2587, "ĠApril": 2588, "ĠSeptember": 2589, "uf": 2590, "Field": 2591, "Ġenjoy": 2592, "fort": 2593, "Ġhope": 2594, "ners": 2595, "ides": 2596, "Ġreview": 2597, "(c": 2598, "ham": 2599, "\\\"": 2600, "ana": 2601, "ĠWest": 2602, "anies": 2603, "Ar": 2604, "Ġindustry": 2605, "idence": 2606, "na": 2607, "ython": 2608, "Ġstation": 2609, "Ġtele": 2610, "Ġassoci": 2611, "ification": 2612, "aul": 2613, "Ġclub": 2614, "Ġevents": 2615, "metadata": 2616, "uild": 2617, "ĠPark": 2618, "Ġmatch": 2619, "rans": 2620, "ĠEl": 2621, "Ġpage": 2622, "Ġdi": 2623, "ached": 2624, "Ġ,": 2625, "Is": 2626, "-w": 2627, "Ġenough": 2628, "Ġnetwork": 2629, "adem": 2630, "To": 2631, "cover": 2632, "Ġopportun": 2633, "Ġnatural": 2634, "wik": 2635, "Ġblack": 2636, "Ġleast": 2637, "Ġfuture": 2638, "ipedia": 2639, "ĠPart": 2640, "length": 2641, "Ġfeature": 2642, "Ġsuper": 2643, "ovember": 2644, "Ġbegin": 2645, "Ġgirl": 2646, "Ġthird": 2647, "ĠII": 2648, "ĠComp": 2649, "imate": 2650, "Ġmillion": 2651, "Ġoriginal": 2652, "eder": 2653, "-st": 2654, "ĠOctober": 2655, "Ġpriv": 2656, "Ã³": 2657, "iff": 2658, "lobal": 2659, "Ġpie": 2660, "urg": 2661, "Ġdiff": 2662, "rict": 2663, "].": 2664, "And": 2665, "ground": 2666, "_path": 2667, "arning": 2668, "Ġface": 2669, "Ġep": 2670, "Ġquick": 2671, "ĠRob": 2672, "ervice": 2673, "ĠJanuary": 2674, ".ex": 2675, "Ġseen": 2676, "Ġcreated": 2677, "Ġstyle": 2678, "ĠCont": 2679, "ĠRep": 2680, "cember": 2681, "Ġsett": 2682, "):": 2683, "Ġpur": 2684, "Ġsearch": 2685, "Ġtechnology": 2686, "Ġthing": 2687, "Ġeasy": 2688, "oph": 2689, "Ġdetails": 2690, "Ġcode": 2691, "ming": 2692, "language": 2693, "ĠSw": 2694, "ministr": 2695, "format": 2696, "ving": 2697, "Ġquality": 2698, "Ġnamed": 2699, "Ġing": 2700, "group": 2701, "HE": 2702, "Ġcook": 2703, "ags": 2704, "Ġlen": 2705, "Ġhalf": 2706, "order": 2707, "ypothes": 2708, "Ġ--": 2709, "aren": 2710, "Ġmakes": 2711, "ĠLeague": 2712, "Ġfocus": 2713, "iles": 2714, "Ġpublished": 2715, "arl": 2716, "rel": 2717, "Ġareas": 2718, "Ġband": 2719, "External": 2720, "sections": 2721, "nection": 2722, "run": 2723, "ĠSoc": 2724, "lished": 2725, "Ġprem": 2726, "go": 2727, "Ġtraining": 2728, "born": 2729, "ĠAb": 2730, "Ġwoman": 2731, "Ġnp": 2732, "Ġbar": 2733, "âĢ¦": 2734, "Ġunique": 2735, "Ġreason": 2736, "ibility": 2737, "-h": 2738, "cher": 2739, "ĠQu": 2740, "ship": 2741, "ĠPer": 2742, ".mod": 2743, "There": 2744, "ography": 2745, "ĠEm": 2746, "Ġgrad": 2747, "Ġsays": 2748, "Ġhot": 2749, "dom": 2750, "ĠMr": 2751, "Ġemail": 2752, "Ġdescrib": 2753, "Ġcut": 2754, "ude": 2755, "Ġage": 2756, "gress": 2757, "oura": 2758, "ief": 2759, "Ġca": 2760, "Ġdistrict": 2761, "ypothesis": 2762, "Ġpotential": 2763, "ĠIm": 2764, "asing": 2765, "irc": 2766, "Ġanim": 2767, "Ġbit": 2768, "Ġconnect": 2769, "epend": 2770, "ĠJapan": 2771, "Ġrecomm": 2772, "Ġhours": 2773, "Ġlik": 2774, "Ġwhy": 2775, "Ġsoftware": 2776, "rodu": 2777, "ett": 2778, "room": 2779, "Ġposition": 2780, "Ġfall": 2781, "Ġdeep": 2782, "wikipedia": 2783, "aching": 2784, "param": 2785, "aining": 2786, "ided": 2787, "Ġstop": 2788, "iddle": 2789, "Ġrelationship": 2790, "Ġnational": 2791, "lected": 2792, "aign": 2793, "Ġprevious": 2794, "jango": 2795, "Ġinput": 2796, "Ġexpected": 2797, "Ġlay": 2798, "orpor": 2799, "sy": 2800, "cret": 2801, "erc": 2802, "Ġplayer": 2803, "ĠSer": 2804, "ondon": 2805, "itted": 2806, "Ġsource": 2807, "plit": 2808, "Ġter": 2809, "elling": 2810, "Ġrequire": 2811, "Ġwhite": 2812, "ĠNovember": 2813, "clus": 2814, "oice": 2815, "ĠFeb": 2816, "Ġfriends": 2817, "Ġtable": 2818, "Ġstay": 2819, "Ġwriting": 2820, "itch": 2821, "Ġrespons": 2822, "Ġmiss": 2823, "Ġpress": 2824, ".__": 2825, ">Ċ": 2826, "oman": 2827, "Ġbelow": 2828, "Ġgen": 2829, "isc": 2830, "Ġclaim": 2831, "Ġengine": 2832, "cast": 2833, "Ġdistribut": 2834, "Ġarch": 2835, "Ġdeal": 2836, "Ġrad": 2837, "inary": 2838, "wargs": 2839, "Ġmeas": 2840, "Ġfurther": 2841, "Ġshare": 2842, "uk": 2843, "itary": 2844, "ĠKey": 2845, "unch": 2846, "ĠDecember": 2847, "ender": 2848, "uments": 2849, "ara": 2850, "But": 2851, "ĠDes": 2852, "unk": 2853, "abor": 2854, "ĠDav": 2855, "-cent": 2856, "ĠNot": 2857, "ename": 2858, "rest": 2859, "ouble": 2860, "Ġappear": 2861, "Ġfire": 2862, "ĠMed": 2863, "Ġcontinue": 2864, "iple": 2865, "UR": 2866, "Ġbring": 2867, "Ġoffice": 2868, "Ġincluded": 2869, "ĠGeneral": 2870, "Ġclean": 2871, "ellow": 2872, "Ġforce": 2873, "ald": 2874, "Ġcoll": 2875, "Ġcopy": 2876, "âĢĻve": 2877, "Ġachie": 2878, "Ġcolor": 2879, "aid": 2880, "oints": 2881, "ales": 2882, "Ġmonths": 2883, "Ġgeneral": 2884, "Ġcompanies": 2885, "Ġson": 2886, "Ġtaking": 2887, "Ġmax": 2888, "Ġstring": 2889, "Ġflow": 2890, "Ġdat": 2891, "Ġfront": 2892, "Ġhttp": 2893, "Ġblock": 2894, "Type": 2895, "Ġsat": 2896, "Ġyet": 2897, "Ġpoints": 2898, "eople": 2899, "Ġnecess": 2900, "Ġground": 2901, "AP": 2902, "Ġtitle": 2903, "ruary": 2904, "ae": 2905, "Ġconfig": 2906, "_file": 2907, "Ġinflu": 2908, "Ġcommand": 2909, "Ġclose": 2910, "Ġroad": 2911, "attle": 2912, "ref": 2913, "ding": 2914, "Ġprofessional": 2915, "Ġmor": 2916, "Ġsuccessful": 2917, "Ġeducation": 2918, "Ġoutput": 2919, ".con": 2920, "_pro": 2921, "ĠPres": 2922, "Ġwritten": 2923, "ĠHouse": 2924, "umber": 2925, "Ġelif": 2926, "_data": 2927, "Ġpopulation": 2928, "iate": 2929, "Ġtravel": 2930, "IL": 2931, "ram": 2932, "Ġver": 2933, "Ġparticip": 2934, "ING": 2935, "ĠCollege": 2936, "Ġcontext": 2937, "_key": 2938, "ĠSm": 2939, "Ġbuy": 2940, "cil": 2941, "ampionship": 2942, "ĠMus": 2943, "Ġcell": 2944, "Ġprovided": 2945, "Ġdig": 2946, "Ġexamples": 2947, "Ġadded": 2948, "istic": 2949, "Ġabs": 2950, "ivision": 2951, "Ġplatform": 2952, "Ġmessage": 2953, "field": 2954, "year": 2955, "Ġled": 2956, "ension": 2957, "Ġseem": 2958, "plied": 2959, "Ġtaken": 2960, "selves": 2961, "-in": 2962, "book": 2963, "gs": 2964, "Ġcomes": 2965, "iol": 2966, "Ġhowever": 2967, "Ġpurch": 2968, "Ġnorth": 2969, "Ġborn": 2970, "ford": 2971, "oe": 2972, "Ġ**": 2973, "Ġamount": 2974, "yd": 2975, "Ġexperi": 2976, "Ġchalleng": 2977, "Ġaddition": 2978, "que": 2979, "ĠAN": 2980, "Ġestablished": 2981, "Ġcommunic": 2982, "Ġsimilar": 2983, "Ġround": 2984, "join": 2985, "Ġoil": 2986, "_list": 2987, "ĠLondon": 2988, "http": 2989, "Ġsouth": 2990, "Ġeffort": 2991, "Ġdeterm": 2992, "What": 2993, "mit": 2994, "Ġmonth": 2995, "Ġdoing": 2996, "Ġensure": 2997, "pose": 2998, "_to": 2999, "acher": 3000, "ĠNe": 3001, "posed": 3002, "Ġmodule": 3003, "reed": 3004, "ager": 3005, "oo": 3006, "']Ċ": 3007, "Ġincludes": 3008, "oved": 3009, "aging": 3010, "raw": 3011, "Ġrefer": 3012, "Ġdescription": 3013, "Ġimplement": 3014, "Ġdom": 3015, "Ġperfect": 3016, "ĠDep": 3017, "Ġplaying": 3018, "ĠFrench": 3019, "Ġinte": 3020, "anks": 3021, "Ġgetting": 3022, "Ġprim": 3023, "Ġserved": 3024, "apt": 3025, "Ġfather": 3026, "Ġtask": 3027, "board": 3028, "Ġcentury": 3029, "Ġprovides": 3030, "cial": 3031, "Ġlate": 3032, "ĠTest": 3033, ".in": 3034, "ĠRed": 3035, "Ġtre": 3036, "igr": 3037, "Ġmanagement": 3038, "Ġlost": 3039, "ĠI'm": 3040, "Ġrout": 3041, "valid": 3042, "Ġregular": 3043, "Ġant": 3044, "bor": 3045, "Ġhimself": 3046, "Ġattack": 3047, "Ġri": 3048, "anch": 3049, "Ġwhole": 3050, "Se": 3051, "ournal": 3052, "itting": 3053, "eturn": 3054, "Ġwhether": 3055, "py": 3056, "sequ": 3057, "ĠUse": 3058, "estern": 3059, "DE": 3060, "avy": 3061, "Ġvalues": 3062, "Ġste": 3063, "Ġ+=": 3064, "hel": 3065, "Ġdiscuss": 3066, "Ġpick": 3067, "Ġproduction": 3068, "ĠĠĠĠĠĠĠĠĠĠĠĠ": 3069, "Ġusers": 3070, "Ġoffers": 3071, "Ġways": 3072, "Ġissues": 3073, "oes": 3074, "nd": 3075, "Ġcustomers": 3076, "'),Ċ": 3077, "irm": 3078, "ators": 3079, "no": 3080, "Ġinstall": 3081, ".org": 3082, "Ġrisk": 3083, "Ġannoun": 3084, "verage": 3085, "Ġcred": 3086, "Ġsold": 3087, "ledge": 3088, "ĠFebruary": 3089, "ps": 3090, "ĠSome": 3091, "Ġhom": 3092, "ening": 3093, "Ġcampaign": 3094, "Ġ\\\"": 3095, "eters": 3096, "udd": 3097, "Ġdifficult": 3098, "ĠAng": 3099, "iment": 3100, "Ġentire": 3101, "aves": 3102, "ocal": 3103, "leep": 3104, "Ġgra": 3105, "ancial": 3106, "ensive": 3107, "Ġboard": 3108, "iful": 3109, "TION": 3110, "ĠMark": 3111, "=False": 3112, "ington": 3113, "lymp": 3114, "ceed": 3115, "ouncil": 3116, "US": 3117, "ological": 3118, "Ġcontact": 3119, "imately": 3120, "Ġmer": 3121, "Sh": 3122, "unction": 3123, "List": 3124, "create": 3125, "ĠDr": 3126, "odel": 3127, "Ġsaw": 3128, "Ġneg": 3129, "ĠArt": 3130, "ĠMich": 3131, "Val": 3132, "index": 3133, "inally": 3134, "Ġvari": 3135, "Amer": 3136, "ux": 3137, "orge": 3138, "ns": 3139, "istrict": 3140, "iforn": 3141, "Ġweb": 3142, "Name": 3143, "Ġdate": 3144, "\"\"\"Ċ": 3145, "Ġhon": 3146, "pecially": 3147, "OT": 3148, "Ġrecogn": 3149, "Res": 3150, "Ġwords": 3151, "clude": 3152, "Ġchanges": 3153, "ĠRuss": 3154, "iting": 3155, "Ã¡": 3156, "request": 3157, "ĠAg": 3158, "rect": 3159, "Ġplease": 3160, "Ġimage": 3161, "(m": 3162, "00": 3163, "âĢĻm": 3164, "Ġpark": 3165, "www": 3166, "dict": 3167, "ĠSun": 3168, ">>": 3169, "Ġsqu": 3170, "Ġadditional": 3171, "Ġincrease": 3172, "ĠMon": 3173, "coming": 3174, "Ġprob": 3175, "Qu": 3176, "Ġill": 3177, "_res": 3178, "Ġextra": 3179, "anced": 3180, "ĠSan": 3181, "ks": 3182, "Ġtax": 3183, "izing": 3184, "Ġboy": 3185, "Ġprotect": 3186, "alt": 3187, "Ġaccording": 3188, "urb": 3189, "Ġsil": 3190, "attr": 3191, "ishing": 3192, "ifornia": 3193, "Ġsubject": 3194, "Ġtold": 3195, "Ġ[]Ċ": 3196, "Ġreturned": 3197, "Ġcomput": 3198, "Ġliving": 3199, "uel": 3200, "All": 3201, "Ġalmost": 3202, "Ġthroughout": 3203, "Ġfilms": 3204, "Ġoutside": 3205, "lement": 3206, "ris": 3207, "aker": 3208, "Ġtri": 3209, "Ġnews": 3210, "Ġsystems": 3211, "ym": 3212, "Ġdisplay": 3213, "âĢĻll": 3214, "ites": 3215, "ĠAir": 3216, "Ġneeded": 3217, "ees": 3218, "Cont": 3219, "hing": 3220, "Ġrock": 3221, "Ġworked": 3222, "ĠAct": 3223, "utils": 3224, "ĠAmerica": 3225, "Ġbehind": 3226, "Ġproblem": 3227, "ouch": 3228, "ires": 3229, "rown": 3230, "AB": 3231, "Ġbrand": 3232, "Ġsoon": 3233, "Ġsimple": 3234, "Ġactually": 3235, "ensor": 3236, "time": 3237, "Ġterms": 3238, "plate": 3239, "Ġofficial": 3240, "estions": 3241, "Ġeverything": 3242, "ields": 3243, "alys": 3244, "Ġdesigned": 3245, "oring": 3246, "Ġfelt": 3247, "Ġpromot": 3248, "\")": 3249, "mon": 3250, "Ġdog": 3251, "Ġintrodu": 3252, "Ġrunning": 3253, "ĠDon": 3254, "Ġlower": 3255, "Ġfig": 3256, "ĠLa": 3257, "CH": 3258, "round": 3259, "Not": 3260, "oke": 3261, "_e": 3262, "icro": 3263, "Ġmother": 3264, "':Ċ": 3265, "ĠPhil": 3266, "ĠPublic": 3267, "andom": 3268, "Pl": 3269, "Ġcenter": 3270, "Ġidea": 3271, "ĠStud": 3272, "ĠGerman": 3273, "enced": 3274, "arr": 3275, "Ġhistor": 3276, "Ġid": 3277, "Ġlearning": 3278, "Ġinstance": 3279, "Ġpercent": 3280, "ĠHol": 3281, "Ġresources": 3282, "annel": 3283, "Ġaccept": 3284, "oyal": 3285, "oul": 3286, "ĠCour": 3287, "ipe": 3288, "Ġcannot": 3289, "Ġparty": 3290, "Ġrather": 3291, "American": 3292, "ivil": 3293, "ael": 3294, "Ġtypes": 3295, "Ġbooks": 3296, "Ġgroups": 3297, "_ex": 3298, "ounter": 3299, "())Ċ": 3300, "When": 3301, "Ġtakes": 3302, "sk": 3303, "Ġcomplete": 3304, "See": 3305, "hib": 3306, "light": 3307, "Ġregion": 3308, "Ġculture": 3309, "Ġmarketing": 3310, "ĠCalifornia": 3311, "Ġsn": 3312, "olic": 3313, "Ġ!": 3314, "Ġmaintain": 3315, "ibrary": 3316, "ĠInternational": 3317, "asc": 3318, "return": 3319, "Ġnames": 3320, "ĠRec": 3321, "rup": 3322, "Ġdam": 3323, "Ġball": 3324, "Ġdocument": 3325, "gar": 3326, "OM": 3327, "airs": 3328, "_r": 3329, "Ġswe": 3330, "Ġmodern": 3331, "Ġprote": 3332, "aries": 3333, "Ġwatch": 3334, "ogle": 3335, "amer": 3336, "Ġdoesn": 3337, "list": 3338, "ormal": 3339, "zer": 3340, "Ġcourt": 3341, "AD": 3342, "Ġinternational": 3343, "Ġbirths": 3344, "itation": 3345, "Ġaccom": 3346, "Ġinstead": 3347, "inter": 3348, "come": 3349, "Ġship": 3350, "Ġwait": 3351, "ĠDistrict": 3352, "ades": 3353, "Ġ['": 3354, ".D": 3355, "Ġloss": 3356, "Ġly": 3357, "inn": 3358, "lection": 3359, "Ġactivities": 3360, "ĠIndian": 3361, "Ġcustomer": 3362, "Ġadministr": 3363, "lin": 3364, "Ġrespect": 3365, "iber": 3366, "Ġattempt": 3367, "ĠAc": 3368, "ili": 3369, "ĠÂ": 3370, "Ġoption": 3371, "Ġpolitical": 3372, "-Ċ": 3373, "da": 3374, "etimes": 3375, "ĠRiver": 3376, "do": 3377, "ĠTra": 3378, "ĠAssoci": 3379, "Ġpers": 3380, "ken": 3381, "ivity": 3382, "Ġslow": 3383, "print": 3384, "arter": 3385, "Ġstru": 3386, "Ġbox": 3387, "ends": 3388, "aint": 3389, "etime": 3390, "Ġasked": 3391, "Get": 3392, "Ġge": 3393, "ords": 3394, "Ġtour": 3395, "Ġmoment": 3396, "Ġproperty": 3397, "ĠEngland": 3398, "Ġespecially": 3399, "hood": 3400, ".\"\"\"Ċ": 3401, "Ġpict": 3402, "Ġmoved": 3403, "Ġdied": 3404, "Ġanything": 3405, "useum": 3406, "Ġsepar": 3407, "ĠĠĠĠĠĠĠĠĠĠĠĠĠ": 3408, "Ġword": 3409, "itar": 3410, "ĠSch": 3411, "ufact": 3412, "abel": 3413, "Ġgrowth": 3414, "-century": 3415, "Ġknew": 3416, "Ġsomeone": 3417, "Ġleading": 3418, "ha": 3419, "How": 3420, "Ġprograms": 3421, "Ġgreen": 3422, "obile": 3423, "ĠCenter": 3424, "Ġtraditional": 3425, "ĠOp": 3426, "ĠYour": 3427, "-based": 3428, "Ġprevent": 3429, "Ġinn": 3430, "instance": 3431, "Ġconsum": 3432, "\"]": 3433, "Ġfeed": 3434, "aily": 3435, "ĠStreet": 3436, "col": 3437, "atory": 3438, "Ġrace": 3439, "Ġsort": 3440, "IG": 3441, "Ġstage": 3442, "path": 3443, "Ġbelieve": 3444, "earch": 3445, "ĠIndia": 3446, "rought": 3447, "Ġcup": 3448, "Ġlikely": 3449, "Ġcross": 3450, "Ġfail": 3451, "Ġtelevision": 3452, "Ġcontribut": 3453, "Ġjo": 3454, "Ġcompos": 3455, "Ġtowards": 3456, "Ġmach": 3457, "Ġemb": 3458, "QU": 3459, "_value": 3460, "Ġmount": 3461, "Ġpaper": 3462, "oub": 3463, "Ġinj": 3464, "alysis": 3465, "Ġreduce": 3466, "imum": 3467, "No": 3468, "astic": 3469, "Ġwid": 3470, "Ġwall": 3471, "Ġlocation": 3472, "Ġprior": 3473, "iers": 3474, "Ġgoal": 3475, "Ġshows": 3476, "reek": 3477, "lood": 3478, "agement": 3479, "Ġpractice": 3480, "api": 3481, "Ġdiscover": 3482, "ĠCup": 3483, "Ġaffect": 3484, "Ġrev": 3485, "-year": 3486, "array": 3487, "Ġbroad": 3488, "Ġdeg": 3489, "With": 3490, "ius": 3491, "Ġnode": 3492, "Ġskills": 3493, "md": 3494, "ĠPresident": 3495, "Ġhor": 3496, "Ġwood": 3497, "error": 3498, "(b": 3499, "Ġerror": 3500, "Ġemot": 3501, "Ġgoals": 3502, "ĠEast": 3503, "aged": 3504, "Ġexecut": 3505, "context": 3506, "Ġbad": 3507, "ought": 3508, "iance": 3509, "Ġstaff": 3510, "Ġimm": 3511, "Ġtrying": 3512, "_C": 3513, "Ġfavor": 3514, "Ġhigher": 3515, "ĠSee": 3516, "UL": 3517, "aches": 3518, "tml": 3519, "Ġsun": 3520, "Ġregard": 3521, ".cl": 3522, "Ġwrite": 3523, "Ġexpress": 3524, "reng": 3525, "Ġsche": 3526, "Ġquestions": 3527, "Ġmid": 3528, "illing": 3529, "At": 3530, "AG": 3531, "Ġprivate": 3532, "Ġbi": 3533, "ture": 3534, "Ġindic": 3535, "ĠSim": 3536, "Ġsex": 3537, "Ġten": 3538, "Ġcomplex": 3539, "iday": 3540, "Ġestablish": 3541, "obj": 3542, "eed": 3543, "Ġindividuals": 3544, "Ġmodels": 3545, "ĠGl": 3546, "Ġdraw": 3547, "ION": 3548, "Ġrelease": 3549, "ĠĠĠĠĠĠĠĠĠĠ": 3550, "Ġeyes": 3551, "uration": 3552, "Ġnothing": 3553, "Ġthemselves": 3554, "sg": 3555, "OL": 3556, "itect": 3557, "nes": 3558, "anger": 3559, "Ġparam": 3560, "change": 3561, "Ġwonder": 3562, "pite": 3563, "Ġgave": 3564, "ĠPort": 3565, "rag": 3566, "aughter": 3567, "Ġcy": 3568, "ĠChurch": 3569, "_w": 3570, "Ġnovel": 3571, "(x": 3572, "acc": 3573, "Ġlength": 3574, "Ġprice": 3575, "Ġrate": 3576, "After": 3577, "ĠIr": 3578, "ĠJack": 3579, "unicip": 3580, "oper": 3581, "istance": 3582, "lands": 3583, "vey": 3584, "Ġcirc": 3585, "elebr": 3586, "ament": 3587, "orage": 3588, "Ġissue": 3589, "Ġpositive": 3590, "oding": 3591, "erved": 3592, "Ġfinancial": 3593, "irit": 3594, "Ġsecurity": 3595, "Add": 3596, "ĠAustralia": 3597, "Ġconsidered": 3598, "Ġdark": 3599, ".db": 3600, "_P": 3601, "Ġmatter": 3602, "men": 3603, "Ġbeautiful": 3604, "ĠChe": 3605, "Ġconsist": 3606, "Ġcontract": 3607, "ĠMor": 3608, "zz": 3609, "ution": 3610, "Ġitem": 3611, "Ġusually": 3612, "Ġproduced": 3613, "ĠIN": 3614, "</": 3615, "One": 3616, "Ġinsp": 3617, ".M": 3618, "wood": 3619, "Ġforward": 3620, "Ġcountries": 3621, "ĠAcc": 3622, "Ġvict": 3623, "========": 3624, "ĠÃ": 3625, "ĠOF": 3626, "Ġrecommend": 3627, "ĠCons": 3628, "Ġconditions": 3629, "Ġdecl": 3630, "itte": 3631, "atur": 3632, "nown": 3633, "ĠBlack": 3634, "Ġscreen": 3635, "ĠCanada": 3636, "ety": 3637, "Ġlonger": 3638, "Ġwanted": 3639, "kwargs": 3640, "Ġgold": 3641, "****": 3642, "Ġspecies": 3643, "arents": 3644, "Ġload": 3645, "asons": 3646, "ĠCor": 3647, "ENT": 3648, "Ġsave": 3649, "''": 3650, "icles": 3651, "Ġbal": 3652, "just": 3653, "Ġstatus": 3654, "_g": 3655, "Ġtransport": 3656, "Ġprep": 3657, "Ġcard": 3658, "Ġparts": 3659, "Ġautom": 3660, "ĠIt's": 3661, "Ġliter": 3662, "CT": 3663, "By": 3664, "Ġhands": 3665, "Ġful": 3666, "rote": 3667, "Ġmass": 3668, "Ġbed": 3669, "))": 3670, "Ġrelated": 3671, "Ġquite": 3672, "Ġfresh": 3673, "Ġglobal": 3674, "module": 3675, "Ġstreet": 3676, "Ġsection": 3677, "Ġreading": 3678, "ulate": 3679, "(res": 3680, "Ġitself": 3681, "fully": 3682, "Ġvariety": 3683, "iced": 3684, "_S": 3685, "Ġcause": 3686, "ĠJust": 3687, "_dir": 3688, "ĠOlymp": 3689, "ĠSte": 3690, "-up": 3691, "Ġweight": 3692, "oken": 3693, "Ġfit": 3694, "ĠPoints": 3695, "mission": 3696, "estival": 3697, "Ġlives": 3698, "ico": 3699, "Ġcand": 3700, "Ġplant": 3701, "Ġnature": 3702, "Ġtyp": 3703, "\"\"": 3704, "Ġitems": 3705, "Ġbenefits": 3706, "Ġfiles": 3707, "Ġinvolved": 3708, "ĠDavid": 3709, "unc": 3710, "Ġ!=": 3711, "Ġavoid": 3712, "-M": 3713, "ĠJames": 3714, "Ġcreating": 3715, "Ġapplication": 3716, "Ġgre": 3717, "Ġknowledge": 3718, "Ġcoming": 3719, "Ġability": 3720, "Ġhol": 3721, ".name": 3722, "En": 3723, "Ġshall": 3724, "Ġshop": 3725, "BC": 3726, "Ġdeveloped": 3727, "Ġdrop": 3728, "Ġcoup": 3729, "Ġmultiple": 3730, "Ġchanged": 3731, "Ġconduct": 3732, "ĠPaul": 3733, "Ġcurrently": 3734, "urt": 3735, "Ġrights": 3736, "Ġlines": 3737, "ternet": 3738, "Ġencoura": 3739, "Ġfight": 3740, "Ġviol": 3741, "data": 3742, "Ġleave": 3743, "ocol": 3744, "Ġplaces": 3745, "mat": 3746, "-g": 3747, "-to": 3748, "atives": 3749, "Ġeffective": 3750, "ĠTV": 3751, "Ġchurch": 3752, "Ġequip": 3753, "Ġopened": 3754, "ĠInc": 3755, "ection": 3756, "().": 3757, "ospital": 3758, "Ġtips": 3759, "igned": 3760, "stitute": 3761, "omb": 3762, "ustr": 3763, "ĠOf": 3764, "Ġwife": 3765, "ĠWhile": 3766, "ĠOur": 3767, "Ġlevels": 3768, "Ġuses": 3769, "Ġbott": 3770, "Ġfields": 3771, "update": 3772, "unt": 3773, "rig": 3774, "Ġproblems": 3775, "ĠFrom": 3776, "Ġnecessary": 3777, "inated": 3778, "iation": 3779, "IP": 3780, "ĠFirst": 3781, "Ġcast": 3782, "Ġschools": 3783, "log": 3784, "rep": 3785, "Ġcontinued": 3786, "Ġns": 3787, "Ġallows": 3788, "Ġmanager": 3789, "Ġhit": 3790, "Ġpattern": 3791, "////": 3792, "err": 3793, "Ġconcern": 3794, "Ġarray": 3795, "Ġtools": 3796, "Ġweeks": 3797, "Ġleaders": 3798, "pri": 3799, "Ġcharacters": 3800, "So": 3801, "Ġinside": 3802, "Ġbrother": 3803, "Ġmilitary": 3804, "ĠLet": 3805, "Ġphysical": 3806, "Ġintegr": 3807, "ittee": 3808, "ady": 3809, "Ġjud": 3810, "mark": 3811, "Ġessential": 3812, "Ġaudience": 3813, "Ġcollege": 3814, "duc": 3815, "Ġstreng": 3816, "Ġvalid": 3817, "Ġsuff": 3818, "Ġpan": 3819, "ulated": 3820, "adian": 3821, "Ġstar": 3822, "ĠGroup": 3823, "ĠPal": 3824, "ĠPat": 3825, "Ġaward": 3826, "ago": 3827, "UN": 3828, "comp": 3829, "json": 3830, "ĠWash": 3831, "Ġmanufact": 3832, "Ġcat": 3833, "Ġpolicy": 3834, ".P": 3835, "ederal": 3836, "Ġeffic": 3837, "Ġrecent": 3838, "icens": 3839, "Ġmale": 3840, "OS": 3841, "ests": 3842, "Ġsust": 3843, "band": 3844, "rican": 3845, "iding": 3846, "Ġwindow": 3847, ".r": 3848, "fl": 3849, "ĠSk": 3850, "Ġfem": 3851, "Ġsys": 3852, "Ġquickly": 3853, "Ġproviding": 3854, "ĠDay": 3855, "ville": 3856, "ĠSum": 3857, "ults": 3858, "ayer": 3859, "rast": 3860, "Ġrow": 3861, "Ġmention": 3862, "Ġrelig": 3863, "Ġformat": 3864, "Ġpresident": 3865, "ĠBer": 3866, "Ġupd": 3867, "Ġblog": 3868, "vant": 3869, "Ġaverage": 3870, "itude": 3871, "Ġago": 3872, "'}": 3873, "Ġclient": 3874, "-e": 3875, "ĠSen": 3876, "ij": 3877, "ĠFound": 3878, "Ġvia": 3879, "Ġteams": 3880, "etry": 3881, "default": 3882, "ĠMag": 3883, "lor": 3884, "ida": 3885, "tty": 3886, "Ġbrought": 3887, "Ġdevice": 3888, "Ġsec": 3889, "host": 3890, "_url": 3891, "Ġcontain": 3892, "Ġsummer": 3893, "ilter": 3894, "Ġexpert": 3895, "roy": 3896, "omen": 3897, "Ġstudent": 3898, "Ġapproach": 3899, "Ġwrote": 3900, "ĠEuropean": 3901, "ĠTrans": 3902, "gen": 3903, "ĠChampionship": 3904, "Ġdict": 3905, "Ġeveryone": 3906, "odule": 3907, "Ġfast": 3908, "Ġsales": 3909, "ĠChina": 3910, "Ġattention": 3911, "ĠMary": 3912, "Im": 3913, "ĠAssociation": 3914, "Ġsens": 3915, "Ġchoose": 3916, "orthern": 3917, "Ġfollowed": 3918, "ĠRich": 3919, "imal": 3920, "Ġexerc": 3921, "Ġmaterials": 3922, "reate": 3923, "Ġwide": 3924, "output": 3925, "Ġsimply": 3926, "Ġcollection": 3927, "arily": 3928, "Ġcelebr": 3929, "ado": 3930, "Ġdise": 3931, "My": 3932, "amm": 3933, "Ġsus": 3934, "Ġobtain": 3935, "Ġdecision": 3936, "Ġacqu": 3937, "Ġ(\"": 3938, "aught": 3939, "Ġideas": 3940, "Ġfix": 3941, "Ġepis": 3942, "Ġcases": 3943, "ĠOff": 3944, "ander": 3945, "ĠThom": 3946, "istry": 3947, "uge": 3948, "ĠFrance": 3949, "ĠBel": 3950, "Ġorganization": 3951, "Ġelements": 3952, "Ġspeed": 3953, "Ġrail": 3954, "Ġcomfort": 3955, "net": 3956, "_info": 3957, "Ġveh": 3958, "ĠChar": 3959, "rong": 3960, "Ġemer": 3961, "Ġbehav": 3962, "Ġarticle": 3963, "Ġappoint": 3964, "Ġtim": 3965, "-S": 3966, "ĠYes": 3967, "Ph": 3968, "Ġargs": 3969, "ipp": 3970, "ĠGeorge": 3971, "Ġenter": 3972, "lying": 3973, "ims": 3974, "ĠRobert": 3975, "Ġlat": 3976, "ĠCompany": 3977, "Ġcls": 3978, "Ġfrequ": 3979, "ĠInter": 3980, "'])Ċ": 3981, "ĠJer": 3982, "Ġmedical": 3983, "Ġyourself": 3984, "Ġanaly": 3985, "Ġprobably": 3986, "Ġhair": 3987, "irtual": 3988, "Ġoverall": 3989, "Ġneigh": 3990, "Ġerr": 3991, "raz": 3992, "outhern": 3993, ".is": 3994, "Ġindex": 3995, "rian": 3996, "Ġcompl": 3997, "Par": 3998, "Ġsurv": 3999, "ula": 4000, "Ġindepend": 4001, "izer": 4002, ")\\": 4003, "Ġpassed": 4004, "Gr": 4005, "ges": 4006, "Ġconnection": 4007, "anish": 4008, "Ġmorning": 4009, "comes": 4010, "sible": 4011, "Ġprogress": 4012, "Ġhelps": 4013, "Ġbank": 4014, "FA": 4015, "IM": 4016, "Ġhypothesis": 4017, "Ġstrugg": 4018, "ston": 4019, "ĠHall": 4020, "Ġbusinesses": 4021, "TER": 4022, "Ġstandard": 4023, "ĠNow": 4024, "uate": 4025, "ĠDis": 4026, "ĠQue": 4027, "active": 4028, "Ġstat": 4029, "ĠCourt": 4030, "aven": 4031, "aling": 4032, "ny": 4033, "ĠSure": 4034, "Ġallowed": 4035, "ĠGreen": 4036, "Ġdecided": 4037, "race": 4038, "ĠCouncil": 4039, "state": 4040, "wise": 4041, "Ġcorrect": 4042, "Ġchallenges": 4043, "ĠUK": 4044, "Col": 4045, "ĠDepartment": 4046, "=self": 4047, "pected": 4048, "ĠLaw": 4049, "Ġconstruction": 4050, "Ġreach": 4051, "Ġimmed": 4052, "Ġcapital": 4053, "Ġstrateg": 4054, "Ġannounced": 4055, ".re": 4056, "Ġhelped": 4057, "Ġachieve": 4058, "EM": 4059, "item": 4060, "isf": 4061, "Ġple": 4062, "ĠPrem": 4063, "Ġqual": 4064, "Ġreceive": 4065, "Ġsentence": 4066, "where": 4067, "(),": 4068, "ĠĠĠĠĠĠĠĠĠĠĠĠĠĠ": 4069, "Ġprojects": 4070, "rab": 4071, "Ġsleep": 4072, "_par": 4073, "rix": 4074, "Ġtreatment": 4075, "ero": 4076, "ĠWashington": 4077, "bon": 4078, "ĠGreat": 4079, "itionally": 4080, "uid": 4081, "ocation": 4082, "ĉĉĉ": 4083, "Ġarri": 4084, "Ã¼": 4085, "chan": 4086, "Ġremember": 4087, "ĠInst": 4088, "efault": 4089, "Ġreported": 4090, "Ġassociated": 4091, "abase": 4092, "Ġsongs": 4093, "Ġobs": 4094, "Ġblue": 4095, "ÃŃ": 4096, "down": 4097, "ĠAlex": 4098, "Ġurl": 4099, "Ġfinally": 4100, "Ġpremise": 4101, "ĠDem": 4102, "alian": 4103, "_T": 4104, "Ġseek": 4105, "Ġturned": 4106, "Ġearl": 4107, "Ġwhose": 4108, "Ġdeliver": 4109, "Ġstates": 4110, "Ġearn": 4111, "sych": 4112, "eg": 4113, "OP": 4114, "urance": 4115, "Ġsend": 4116, "van": 4117, "verse": 4118, "bl": 4119, "Ġdirector": 4120, "ĠJe": 4121, "Ġparents": 4122, "Ġtemper": 4123, "Ġeconomic": 4124, ".write": 4125, "New": 4126, "ĠLou": 4127, "Ġready": 4128, "Ġdead": 4129, "Ġworth": 4130, "Ġorganiz": 4131, "Ġapprox": 4132, "uses": 4133, "azine": 4134, "sec": 4135, "Ġoccur": 4136, "ĠTHE": 4137, "berg": 4138, "ĠRoad": 4139, "Ġmental": 4140, "Ġsurround": 4141, "istics": 4142, "known": 4143, "Ġproper": 4144, "Ind": 4145, "Ġund": 4146, "ka": 4147, "uit": 4148, "ĠProv": 4149, "Ġesc": 4150, "ĠMiss": 4151, "Ġspent": 4152, "Ġactive": 4153, "Ġhappy": 4154, ".models": 4155, "level": 4156, "Ġopportunity": 4157, "ĠClub": 4158, "olf": 4159, "Ġshape": 4160, "Ġcorn": 4161, "Ġwind": 4162, "Ġveget": 4163, "erve": 4164, "iring": 4165, "Ġdescribed": 4166, "asket": 4167, "Ġteacher": 4168, "Ġtrain": 4169, "Ġheat": 4170, "II": 4171, "Ġsports": 4172, "Ġseems": 4173, "ĠCap": 4174, "People": 4175, "Ġskin": 4176, "Ġcompleted": 4177, "LO": 4178, "Ġetc": 4179, "Ġeast": 4180, "ĠHealth": 4181, "venue": 4182, "dir": 4183, "Ġphone": 4184, "Ġ``": 4185, "cles": 4186, "enge": 4187, "She": 4188, "rc": 4189, "Id": 4190, "arden": 4191, "ĠTom": 4192, "Ġarr": 4193, "Ġeffects": 4194, "-time": 4195, "ĠTex": 4196, "iques": 4197, "see": 4198, "Ġspeak": 4199, "perties": 4200, "Ġscore": 4201, ".F": 4202, "Ġanalysis": 4203, ".e": 4204, ".par": 4205, "ĠRoman": 4206, "((": 4207, "enty": 4208, "_dict": 4209, "mercial": 4210, "Ġmess": 4211, "Ġfeet": 4212, "Ġdress": 4213, "Ġcool": 4214, "Ġdrink": 4215, "_ch": 4216, "Ġstress": 4217, "ĠMal": 4218, "'.": 4219, "Value": 4220, "rie": 4221, "Ġdaily": 4222, "nel": 4223, "shape": 4224, "_by": 4225, "Ġselect": 4226, "ĠAward": 4227, "ĠTw": 4228, "_size": 4229, "Ġlif": 4230, "Ġarchitect": 4231, "Ġinvestig": 4232, "Ġstructure": 4233, "Ġmeeting": 4234, "ocr": 4235, "Ġnut": 4236, "ĠSent": 4237, "rael": 4238, "ĠMart": 4239, "Ġtransfer": 4240, "ĠThen": 4241, "Ġsometimes": 4242, "Ġserver": 4243, "Ġvoice": 4244, "za": 4245, "Ġblood": 4246, "ĠOR": 4247, "hol": 4248, "Ġ\\Ċ": 4249, "edic": 4250, "ĠRem": 4251, "rim": 4252, "Ġlimit": 4253, "Ġbirth": 4254, "Ġcollabor": 4255, "text": 4256, "ĠWilliam": 4257, "ya": 4258, "Ġtrust": 4259, "Ġwarm": 4260, "ĠKe": 4261, "Ġfarm": 4262, "Ġjoined": 4263, "Ġaw": 4264, "Ġaltern": 4265, ".T": 4266, "Ġincreased": 4267, "Ġpiece": 4268, "Ġinstit": 4269, "Ġtast": 4270, "Ġeight": 4271, "amic": 4272, "gram": 4273, "Ġtree": 4274, "Ġtouch": 4275, "ĠUs": 4276, "_N": 4277, "ĠAustralian": 4278, "ĠMore": 4279, "Ġheard": 4280, "isions": 4281, "ĠWork": 4282, "Ġpolice": 4283, "Ġrestaur": 4284, "Ġsustain": 4285, "ĠMet": 4286, "Ġprinc": 4287, "HO": 4288, "Ġones": 4289, "issions": 4290, "flow": 4291, "Ġcouple": 4292, ".id": 4293, "Ġdigital": 4294, "ician": 4295, "Sc": 4296, "Des": 4297, "itter": 4298, "Ġeasily": 4299, "hold": 4300, "rica": 4301, "aby": 4302, "ĠSam": 4303, "Ġtool": 4304, "Ġmarried": 4305, "idents": 4306, "Ġ[],": 4307, "ĠOut": 4308, "ĠList": 4309, "ĠBook": 4310, "Ġstories": 4311, "Ġrepl": 4312, "isl": 4313, "bert": 4314, "Ġfeeling": 4315, "_M": 4316, "ourney": 4317, "ĠUp": 4318, "ĠReturn": 4319, "ĠChristian": 4320, "Ġdoor": 4321, "server": 4322, "Ġstarting": 4323, "Ġstream": 4324, "Ġdrive": 4325, "abled": 4326, "ooth": 4327, ".\"?Ċ": 4328, "ĠParty": 4329, "ader": 4330, "Ġelement": 4331, "ĠOver": 4332, "Ġalthough": 4333, "Ġ>>>": 4334, "Ġcomment": 4335, "Ġroll": 4336, "haps": 4337, "Ġanc": 4338, "ĠMil": 4339, "Ġisinstance": 4340, "Ap": 4341, "Ġdire": 4342, "ios": 4343, "Ġlabel": 4344, "Ġfund": 4345, "Ġgoes": 4346, "ĠDuring": 4347, "Ġfear": 4348, "uce": 4349, "Ġincorpor": 4350, "Ġcolumn": 4351, "ounds": 4352, "ube": 4353, "QUES": 4354, "Ġtrip": 4355, "EL": 4356, "ĠMex": 4357, "pace": 4358, "ĉself": 4359, "Ġgrand": 4360, "ĠFree": 4361, "ĠPe": 4362, "Over": 4363, "ilies": 4364, "Ġmovie": 4365, "Ġut": 4366, "hest": 4367, "Ġparticularly": 4368, "Ġplans": 4369, "Ġidentify": 4370, "ĠPre": 4371, "Ġexact": 4372, "ĠEar": 4373, "Ġbur": 4374, "Ġcosts": 4375, "Ġinitial": 4376, "ĠUnion": 4377, "encies": 4378, "_,": 4379, "tes": 4380, "ĠIS": 4381, "ils": 4382, ".pro": 4383, "Ġnumbers": 4384, "hens": 4385, "EC": 4386, "Ġappeared": 4387, "Ġhear": 4388, "Ġlimited": 4389, "Ġcollect": 4390, "Ġmock": 4391, "box": 4392, "porary": 4393, "Ġbeginning": 4394, "Ġchoice": 4395, "EX": 4396, "Ġdownload": 4397, "Ġfair": 4398, "ategy": 4399, "azing": 4400, "Ġforms": 4401, "ĠDirect": 4402, "From": 4403, "osing": 4404, "ini": 4405, "ota": 4406, "ĠNor": 4407, "inese": 4408, "Ġsources": 4409, "Ġscient": 4410, "xy": 4411, "Ġord": 4412, "Ġcarry": 4413, "ĠGermany": 4414, "Ġbow": 4415, "house": 4416, "Ġdirectly": 4417, "Ġpretty": 4418, "ategory": 4419, "Ġmeaning": 4420, "Ġtransl": 4421, "Ġcontains": 4422, "ĠMount": 4423, "Ġexpand": 4424, "more": 4425, "Ġsolution": 4426, "(r": 4427, "Ġlack": 4428, "Ġdidn't": 4429, "sey": 4430, "Ġlargest": 4431, "Ġscience": 4432, "Ġsen": 4433, "Ġmethods": 4434, "Ġcomputer": 4435, "ĠMichael": 4436, "anged": 4437, "ĠWhite": 4438, "ĠMac": 4439, "semb": 4440, "Ġactivity": 4441, "Ġder": 4442, "Ġguitar": 4443, "Ġdemon": 4444, "Ġvot": 4445, "Ġriver": 4446, "Ġimages": 4447, "open": 4448, "ĠGold": 4449, "ĠAngel": 4450, "tr": 4451, "Ġregister": 4452, "irgin": 4453, "ĠFoundation": 4454, "Ġgraph": 4455, "Ġsafe": 4456, "mitted": 4457, "à¤": 4458, "][": 4459, "De": 4460, "ala": 4461, "opyright": 4462, "Ġdaughter": 4463, "Ġenh": 4464, "rial": 4465, "ootball": 4466, "Ġsession": 4467, "Ġstock": 4468, "File": 4469, "vis": 4470, "ML": 4471, "Ġmunicip": 4472, "Ġlegal": 4473, "Ġhealthy": 4474, "Ġtrade": 4475, "shire": 4476, "ĠArmy": 4477, "ias": 4478, "Ġseven": 4479, "-B": 4480, "riving": 4481, "olar": 4482, "ĠFranc": 4483, "Ġspirit": 4484, "Ġdiv": 4485, "Ġdistributed": 4486, "ously": 4487, "Ġevidence": 4488, "Ġsymb": 4489, "root": 4490, "ĠTechn": 4491, "Ġprimary": 4492, "eds": 4493, "ĠAv": 4494, "ano": 4495, "Ġdefe": 4496, "udget": 4497, "Ġfinished": 4498, "Ġhighly": 4499, "ĠTexas": 4500, "Ġsteps": 4501, "_se": 4502, "ESS": 4503, "TP": 4504, "ĠIsland": 4505, "position": 4506, "ĠBest": 4507, "ĠGet": 4508, "Ġmyself": 4509, "Ġleague": 4510, "_cl": 4511, "leg": 4512, "Ġparent": 4513, "Ġnumer": 4514, "ĠJew": 4515, "orial": 4516, "rief": 4517, "Ġmap": 4518, "ĠSing": 4519, "AA": 4520, "illa": 4521, "_D": 4522, "Ġreve": 4523, "_add": 4524, "ena": 4525, "Ġfemale": 4526, "Ġang": 4527, "Ġlooked": 4528, "Ġsem": 4529, "rd": 4530, "Ġgiving": 4531, "Ġdru": 4532, "max": 4533, "Ġopportunities": 4534, "ruit": 4535, "ĠOther": 4536, "ĠYear": 4537, "Ob": 4538, "Ġcivil": 4539, "aled": 4540, "Ġ...": 4541, "Ġmiddle": 4542, "ĠFin": 4543, "ii": 4544, "Ġshown": 4545, "Ġtechniques": 4546, "Ġunderstanding": 4547, "Ġincreasing": 4548, "Ġimag": 4549, "Ġinform": 4550, "OD": 4551, "Ġlooks": 4552, "ĠBus": 4553, "reak": 4554, "Ġdebut": 4555, "Ġemployees": 4556, "ĠAre": 4557, "Ġstri": 4558, "ĠBen": 4559, "ĠMusic": 4560, "Ġhour": 4561, "itable": 4562, "Ġcharg": 4563, "ĠĠĠĠĊ": 4564, "ervation": 4565, "Key": 4566, "loat": 4567, "eal": 4568, "Ġcoach": 4569, "Ġjoin": 4570, "sub": 4571, "Ġinterview": 4572, "'),": 4573, "Ġcondition": 4574, "Ġstudies": 4575, "Ġcru": 4576, "ĠRoyal": 4577, "'],": 4578, "ĠBay": 4579, "Ġpartners": 4580, "ani": 4581, "Ġextrem": 4582, "Fr": 4583, ".A": 4584, "Ġmaster": 4585, "Ġsetting": 4586, "lim": 4587, "efore": 4588, "ĠService": 4589, "Ġprec": 4590, "Set": 4591, "Ġconcept": 4592, "ĠSentence": 4593, "Ġsweet": 4594, "olutions": 4595, "Ġequipment": 4596, "Ġsell": 4597, "Ġsafety": 4598, "ĠAlso": 4599, "\".Ċ": 4600, "Up": 4601, "Ġradio": 4602, "Ġrecently": 4603, "Ġcultural": 4604, "Ġapproximately": 4605, "rupt": 4606, "Ġoperations": 4607, "'):Ċ": 4608, ".fields": 4609, "Ġanyone": 4610, "rics": 4611, "alled": 4612, "ĠSal": 4613, "ancing": 4614, "django": 4615, "ether": 4616, "ĠOb": 4617, "izes": 4618, "ancy": 4619, "History": 4620, "ronic": 4621, "Ġconv": 4622, "Ġcompon": 4623, "Ġupdate": 4624, "_F": 4625, "Ġbackground": 4626, "\\Ċ": 4627, "image": 4628, "ĠFlor": 4629, "Ġreb": 4630, "ading": 4631, "ashion": 4632, "TR": 4633, "stant": 4634, "clusion": 4635, ".join": 4636, "Ġsigned": 4637, "Ġpatients": 4638, "Ġstra": 4639, "Ġden": 4640, "'))Ċ": 4641, "Ġthreat": 4642, "that": 4643, "Ġdouble": 4644, "Ġfol": 4645, "Ġserve": 4646, "asion": 4647, "Let": 4648, "Ġvers": 4649, "Ġmovement": 4650, "Ġcalc": 4651, "chen": 4652, "CC": 4653, "ĠCong": 4654, "Ġpurpose": 4655, "Ġcentral": 4656, "ĠGoogle": 4657, "Ġelection": 4658, "Ġunit": 4659, "Ġartists": 4660, "ademic": 4661, "IR": 4662, "Ġpeace": 4663, "NU": 4664, "ĠSystem": 4665, "redients": 4666, "Ġinnov": 4667, "Ġinteresting": 4668, "inder": 4669, "bb": 4670, "atholic": 4671, "ĠAP": 4672, "ĠIsrael": 4673, "QUESTION": 4674, "emplate": 4675, "Ġaware": 4676, "Ġwhom": 4677, "bour": 4678, "apter": 4679, "thlet": 4680, "ĠPress": 4681, "ĠInstitute": 4682, "uated": 4683, "Ġjournal": 4684, "Ġsav": 4685, "quest": 4686, "ĠDevelop": 4687, "point": 4688, "Ġalone": 4689, "ĠScott": 4690, "Ġjourney": 4691, "ĠFil": 4692, "ĠCanadian": 4693, "iller": 4694, "Ġvolume": 4695, "Ġremain": 4696, "Ġgives": 4697, "force": 4698, "Ġentry": 4699, "Ġletter": 4700, "Ġtried": 4701, "Le": 4702, "ĠWil": 4703, "Ġkids": 4704, "string": 4705, "urrent": 4706, "Ġexcell": 4707, "Ġcompetition": 4708, "ibly": 4709, "Ġrank": 4710, "Ġpractices": 4711, "Ġsatisf": 4712, "part": 4713, "Ġcan't": 4714, "Ġshot": 4715, "ĠHen": 4716, "ĠJapanese": 4717, "db": 4718, "edy": 4719, "Ġwe'": 4720, "Ġorganizations": 4721, "Ġclick": 4722, "____": 4723, "HT": 4724, "ĠDan": 4725, "ona": 4726, "ildren": 4727, "inner": 4728, "Ġdegree": 4729, "ĠArch": 4730, "ette": 4731, "[i": 4732, "ros": 4733, "ĠVol": 4734, "lear": 4735, "FF": 4736, "oms": 4737, "Ġserious": 4738, "Ġchance": 4739, "Ġcommunication": 4740, "Ġconstant": 4741, "Ġcommunities": 4742, "ourse": 4743, "....": 4744, "Ġefforts": 4745, "imb": 4746, "road": 4747, "iant": 4748, "ĠMont": 4749, "Ġpull": 4750, "ĠÐ": 4751, "Ġpen": 4752, "Ġrecorded": 4753, "ĠRad": 4754, "ĠDel": 4755, "Ġwest": 4756, "inct": 4757, "ĠFore": 4758, "Ġsociety": 4759, "Ġbuildings": 4760, "undred": 4761, "aith": 4762, "Ġclients": 4763, "Ġult": 4764, "Ġ##": 4765, "Ġsurface": 4766, "inate": 4767, "cons": 4768, "ĠMo": 4769, "Ġcandid": 4770, "options": 4771, "antic": 4772, "cel": 4773, "iling": 4774, "bar": 4775, "ĠItalian": 4776, "Ġmode": 4777, "ĠSub": 4778, "option": 4779, "Ġmachine": 4780, "Ġutil": 4781, "ĠRock": 4782, "Ġdemand": 4783, "Ġdry": 4784, "Ġsea": 4785, "Ġsequ": 4786, "Ġreached": 4787, "ĠPoland": 4788, "Ġgas": 4789, "Ġfavorite": 4790, "Ġelectric": 4791, "mar": 4792, "Ġsecret": 4793, "Ġplaced": 4794, "Ġremove": 4795, "fess": 4796, "Data": 4797, "Ġexisting": 4798, "using": 4799, "riage": 4800, "ĠMad": 4801, "ademy": 4802, "ql": 4803, "ĠAfrica": 4804, "Ġcert": 4805, "ĠAtt": 4806, "Ġpy": 4807, "Ġsurpr": 4808, "Ġlatest": 4809, "Ġpowerful": 4810, "Ġsituation": 4811, "ducation": 4812, "_method": 4813, "resp": 4814, "rypt": 4815, "mas": 4816, "des": 4817, "Ġpressure": 4818, "Ġuseful": 4819, "Ġexperiences": 4820, "Ġsch": 4821, "Ġperformed": 4822, "ĠFrank": 4823, "Ġexam": 4824, "Ġgreater": 4825, "Ã¶": 4826, "_config": 4827, ".v": 4828, "Ġroot": 4829, "eline": 4830, "Ġaf": 4831, "Ġformed": 4832, "Ġconclude": 4833, "vest": 4834, "Do": 4835, "Ġpoor": 4836, "ĠMem": 4837, "Ġur": 4838, "Ġmobile": 4839, "iately": 4840, "ĠSpec": 4841, "acing": 4842, "ĠTown": 4843, "Ġproduce": 4844, "Ġearlier": 4845, "ui": 4846, "values": 4847, "acity": 4848, "ĠLord": 4849, "Ġfully": 4850, "inger": 4851, "icken": 4852, "Ġpurchase": 4853, "Ġalbums": 4854, "Ġcompletely": 4855, "Ġhandle": 4856, "-pro": 4857, "osh": 4858, "ilename": 4859, "ech": 4860, "iverse": 4861, "ĠSociety": 4862, "Ġbey": 4863, "dis": 4864, "Ġvisual": 4865, "struct": 4866, "Ġpromote": 4867, "Ġsaying": 4868, "atre": 4869, "ervices": 4870, "evice": 4871, "ĠBill": 4872, "ĠOh": 4873, "ĠClass": 4874, "Ġfamilies": 4875, "Ġmoving": 4876, "!!": 4877, "Ġreplace": 4878, "-C": 4879, "Ġcit": 4880, "Living": 4881, "abit": 4882, "Ġwrong": 4883, "Ġgets": 4884, "idden": 4885, "Ġ\"Ċ": 4886, "Ġcommercial": 4887, "Ġruns": 4888, "press": 4889, "Ġpartner": 4890, "ĠThomas": 4891, "Ġnormal": 4892, "Ġbeyond": 4893, "Ġobj": 4894, "Ġcredit": 4895, "Ġmission": 4896, "Ġhar": 4897, "Ġclosed": 4898, "ĠTur": 4899, "Ġadvert": 4900, "pty": 4901, "Ġign": 4902, "Ġstatement": 4903, "burg": 4904, ".B": 4905, "auth": 4906, "Ġaccur": 4907, "isher": 4908, "craft": 4909, "ĠCamp": 4910, "actions": 4911, "Ġthinking": 4912, "Ġobjects": 4913, "mary": 4914, "-P": 4915, "anta": 4916, "That": 4917, ".se": 4918, "Ġadjust": 4919, "ĠLouis": 4920, "Ġ{}Ċ": 4921, "Ġgun": 4922, "ĠMass": 4923, "arian": 4924, "Ġfounded": 4925, "EO": 4926, "Ġagre": 4927, "Ġmis": 4928, "Ġoptim": 4929, "PL": 4930, "items": 4931, "Ġoffered": 4932, "Ġfirm": 4933, "Ġeval": 4934, "ystem": 4935, "_set": 4936, "Ġinterested": 4937, "Ġartist": 4938, "lict": 4939, "Ġattract": 4940, "Ġwriter": 4941, "Ġcop": 4942, "well": 4943, "ĠDivision": 4944, "ails": 4945, "ĠSummer": 4946, "Ġlarger": 4947, "ĠWestern": 4948, "Ġcamer": 4949, "Ġdevices": 4950, "Ġking": 4951, "Ġforest": 4952, "ĠCr": 4953, "ĠAfrican": 4954, "Ġexplore": 4955, "Ġmemory": 4956, ");": 4957, "config": 4958, "Ġsites": 4959, "icket": 4960, "Ġgrowing": 4961, "eta": 4962, "ĠChinese": 4963, "elete": 4964, "ĠTor": 4965, "ĠLake": 4966, "Ġdidn": 4967, "ĠStep": 4968, "la": 4969, "ĠGrand": 4970, "Ġmeasure": 4971, "usband": 4972, "ĠBo": 4973, ".create": 4974, ".object": 4975, "Ġexhib": 4976, "ares": 4977, "Time": 4978, "ĠOpen": 4979, "othing": 4980, "Ġnearly": 4981, "Case": 4982, "ĠMost": 4983, "Ġrelevant": 4984, "ĠVirgin": 4985, "icago": 4986, "ĠCentral": 4987, "Ġax": 4988, "ĠSmith": 4989, "-F": 4990, "ĉif": 4991, "Ġglass": 4992, "Ġspread": 4993, "âĢĻd": 4994, "Ġdedic": 4995, "Ġleaves": 4996, "ĠMany": 4997, "cket": 4998, "Ġresource": 4999, "_state": 5000, "ĠEr": 5001, "Ġinstr": 5002, "Ġmiles": 5003, "Ġthus": 5004, "Ġconstruct": 5005, "iable": 5006, "Ġfamous": 5007, "gment": 5008, "ellig": 5009, "body": 5010, "Ġaspect": 5011, "Ġattend": 5012, "ATE": 5013, "Ġscript": 5014, "Ġadvant": 5015, "ria": 5016, "âĢĿĊ": 5017, "Ġnav": 5018, "new": 5019, "osed": 5020, "Ġeventually": 5021, "amily": 5022, "Ġwild": 5023, "Ġeye": 5024, "Ġdisease": 5025, "ecause": 5026, "ĠCarol": 5027, "Ġfloor": 5028, "rey": 5029, "Ġsettings": 5030, "'\\": 5031, "ĠRepublic": 5032, "ulations": 5033, "asketball": 5034, "ĠPost": 5035, "writ": 5036, "astern": 5037, "Ġtit": 5038, "oma": 5039, "ambda": 5040, "Ġappropri": 5041, "Ġrule": 5042, "Ġpaid": 5043, "icon": 5044, "mm": 5045, "Ġcas": 5046, "lib": 5047, "rapy": 5048, "RAN": 5049, "reland": 5050, "Ġscene": 5051, "ributes": 5052, "ĠJes": 5053, "Ġfine": 5054, "icks": 5055, "ĠĠĠĠĠĠĠĠĊ": 5056, "Ġrules": 5057, "which": 5058, "Ġmur": 5059, "Ġguide": 5060, "Ġheavy": 5061, "_col": 5062, "ĠCatholic": 5063, "String": 5064, "asure": 5065, "Ġbudget": 5066, "_user": 5067, "icious": 5068, "Ġseemed": 5069, "Ġdifference": 5070, "Ġice": 5071, "ĠResearch": 5072, "Ġbeg": 5073, "Ġopening": 5074, "ĠNews": 5075, "Ġstations": 5076, "CE": 5077, "_time": 5078, "ĠMake": 5079, "Ġedge": 5080, "Ġclasses": 5081, "td": 5082, "ĠCertain": 5083, "Ġnote": 5084, "Ġeat": 5085, "Ġfailed": 5086, "Ġgenerally": 5087, "Form": 5088, "ictor": 5089, "ĠInt": 5090, "Ġlearned": 5091, "ĠPeter": 5092, "Ġnation": 5093, "ĠSar": 5094, "ien": 5095, "umer": 5096, "ffee": 5097, "Ġearth": 5098, "Ġmedic": 5099, "[:": 5100, "Ġthous": 5101, "ĠCheck": 5102, "term": 5103, "Ġpet": 5104, "oday": 5105, "Or": 5106, "och": 5107, "Ġdemonstr": 5108, "gricult": 5109, "ĠAdditionally": 5110, "Ġleader": 5111, "Ġmechan": 5112, "Question": 5113, "Ġstrategy": 5114, "Ġdistance": 5115, "Ġpages": 5116, "Ġbound": 5117, "alog": 5118, "ĠFace": 5119, "Ġmsg": 5120, "ync": 5121, "ĠHistory": 5122, "Ġimmediately": 5123, "isco": 5124, "Ġsand": 5125, "Ġconstit": 5126, "idth": 5127, ".log": 5128, "uster": 5129, "Ġamazing": 5130, "gl": 5131, "Ġfilter": 5132, "atively": 5133, "ĠVo": 5134, "pat": 5135, "ĠCommun": 5136, "IV": 5137, "Ġapply": 5138, "Ġ''": 5139, "ĠRecords": 5140, "Ġplanning": 5141, "=[": 5142, "uman": 5143, "ĠSet": 5144, "FL": 5145, "Ġcritical": 5146, "Ġoperation": 5147, "Ġkilled": 5148, "ebug": 5149, "cean": 5150, "ĠKh": 5151, "Ġvoc": 5152, "Ġrenew": 5153, "Ġpieces": 5154, "ologies": 5155, "Ġfish": 5156, "Ġdim": 5157, "anned": 5158, "iny": 5159, "Ġentailed": 5160, "ta": 5161, "icing": 5162, "ĠFlorida": 5163, "These": 5164, "atin": 5165, "Ġegg": 5166, "ĠHot": 5167, "like": 5168, "Ġanimals": 5169, "Our": 5170, "oto": 5171, "stra": 5172, "uten": 5173, "unte": 5174, "ructure": 5175, "Ġshoot": 5176, "Ġdirected": 5177, "_class": 5178, "Ġselected": 5179, "Ġir": 5180, "Ġarm": 5181, "Ġpool": 5182, "Can": 5183, "ĠLeg": 5184, "Ġkit": 5185, "Ġburn": 5186, "Ġresponsible": 5187, "pan": 5188, "iled": 5189, "Ġhighest": 5190, "Ġbreath": 5191, "Ġrap": 5192, "ĠSuper": 5193, "Ġpep": 5194, "Ġtag": 5195, "gor": 5196, "Ġbattle": 5197, "ĠHel": 5198, "Hypothesis": 5199, "Ġrepe": 5200, "Ġraised": 5201, "Man": 5202, "Ġu'": 5203, "li": 5204, "Ġfigure": 5205, "Ġsupply": 5206, "Ġkept": 5207, "Ġplants": 5208, "ĠGood": 5209, "uing": 5210, "Ġprefer": 5211, "andler": 5212, "Ġherself": 5213, "`Ċ": 5214, "Ġwear": 5215, "Ġleaving": 5216, "ava": 5217, "Ġconvers": 5218, "Ġmentioned": 5219, "Ġstorage": 5220, "Ġchem": 5221, "Ġpicture": 5222, "ĠValue": 5223, "Ġalign": 5224, "ĠProject": 5225, "Ġapplications": 5226, "Ġhundred": 5227, "iament": 5228, "Ġcharge": 5229, "Ġdance": 5230, "Ġshared": 5231, "dule": 5232, "rad": 5233, "apping": 5234, "bit": 5235, "care": 5236, "ĠCON": 5237, "ĠMel": 5238, "Ġcaused": 5239, "PE": 5240, "They": 5241, "Ġworkers": 5242, "Ġbehavior": 5243, "(_": 5244, "Ġabsolut": 5245, "Ġhospital": 5246, "Ġmonitor": 5247, "Be": 5248, "ĠDef": 5249, "Ġdoub": 5250, "])": 5251, "ita": 5252, "Ġrandom": 5253, "aturday": 5254, "ĠMuseum": 5255, "Ġowners": 5256, "Ġremains": 5257, "ĠAnn": 5258, "ĠRail": 5259, "ĠIts": 5260, "Ġmulti": 5261, "ĠRussian": 5262, "Ġnegative": 5263, "ĠSur": 5264, "ightly": 5265, "Ġpair": 5266, "ivery": 5267, ".)": 5268, "Ġcolors": 5269, "Ġdecor": 5270, "Ġhusband": 5271, "df": 5272, "grad": 5273, "SS": 5274, "ĠTime": 5275, "-D": 5276, "Ġdestroy": 5277, "ĠPlay": 5278, "Ġreflect": 5279, "Ġepisode": 5280, "Ġcapt": 5281, "Ġbecoming": 5282, "Ġgeneration": 5283, "ĠSoft": 5284, "rs": 5285, "Ġcouldn": 5286, "agn": 5287, "but": 5288, "Ġrich": 5289, "Ġdefinit": 5290, "ensions": 5291, "ĠHill": 5292, "_group": 5293, "ola": 5294, "Ġslowly": 5295, "ĠSunday": 5296, "Ġintroduced": 5297, "Ġquarter": 5298, "Ġcovered": 5299, "elled": 5300, "Ġmissing": 5301, "Ġsinger": 5302, "ĠParis": 5303, "Ġnom": 5304, "ĠKingdom": 5305, "ugin": 5306, "Ġoccup": 5307, "_with": 5308, "apers": 5309, "Ġgrant": 5310, "Ġcold": 5311, "Ġfactors": 5312, "ĠAcademy": 5313, "ĠStar": 5314, "Ġrespond": 5315, "ĠOlympics": 5316, "Ġmanage": 5317, "ĠLife": 5318, "Ġiniti": 5319, "Ġstrength": 5320, "ĠLove": 5321, "Ġdb": 5322, "Ġsyn": 5323, "ĠGreek": 5324, "Ġnumerous": 5325, "mond": 5326, "Ġsolutions": 5327, "ĠCertainly": 5328, "ĠBoard": 5329, "Ġimportance": 5330, "Ġ(Ċ": 5331, "ĠCharles": 5332, "Ġexception": 5333, "Ġsym": 5334, "uple": 5335, "Ġsupported": 5336, "_code": 5337, "_from": 5338, "Ġq": 5339, "hentic": 5340, "-T": 5341, "Ġscen": 5342, "Ġrequires": 5343, "Ġdepartment": 5344, "ĠOrder": 5345, "Ġtrees": 5346, "icians": 5347, "Ġconflict": 5348, "ersion": 5349, "aked": 5350, "Ġlibrary": 5351, "Ġreturns": 5352, "abs": 5353, "ĠGames": 5354, "PS": 5355, "/or": 5356, "Ġrates": 5357, "Char": 5358, "Ġadding": 5359, "Ġtraffic": 5360, "Ġpsych": 5361, "Ġdirection": 5362, "Ġstrategies": 5363, "ĠEv": 5364, "Ġweather": 5365, "ĠGNU": 5366, "})Ċ": 5367, "arts": 5368, "liament": 5369, "ĠMer": 5370, "ĠBrown": 5371, "ifier": 5372, "Ġlock": 5373, "RA": 5374, "Att": 5375, "_get": 5376, "ĠHome": 5377, "Ġdjango": 5378, "Ġbasic": 5379, "Ġchallenge": 5380, "Ġflavor": 5381, "uy": 5382, "Ġlived": 5383, "Ġannual": 5384, "Ġrecipe": 5385, "ĠGovernment": 5386, "Ġclimate": 5387, "Ġnotice": 5388, "uke": 5389, "ĠForce": 5390, "Ġrelationships": 5391, "Ġcream": 5392, "Ġsalt": 5393, "Ġunits": 5394, "Ġactual": 5395, "Ġexcellent": 5396, "0x00": 5397, "only": 5398, "Ġseparate": 5399, "Ġpreviously": 5400, "pass": 5401, "ario": 5402, "anging": 5403, "Ġrequirements": 5404, "ĠSl": 5405, "weight": 5406, "ĠBig": 5407, "_equal": 5408, "ows": 5409, "ĠEvery": 5410, "Ġlies": 5411, "Ġbalance": 5412, "Ġserving": 5413, "Ġapprec": 5414, "Ġproperties": 5415, "code": 5416, "Ġstraight": 5417, "Sp": 5418, "plication": 5419, "dd": 5420, "Ġindependent": 5421, "ĠHistor": 5422, "Ġbeauty": 5423, "ĠSocial": 5424, "Ġoriginally": 5425, "Ġsauce": 5426, "_length": 5427, "case": 5428, "ova": 5429, "Ġtren": 5430, "MS": 5431, "Ġpal": 5432, "ĠChicago": 5433, "core": 5434, "aud": 5435, "Ġdamage": 5436, "ĠAccording": 5437, "check": 5438, "msg": 5439, "ĠCreate": 5440, "Ġdatabase": 5441, "Ġrecords": 5442, "Ġforeign": 5443, "ĠRichard": 5444, "Ġmagazine": 5445, "Ġfif": 5446, "ĠTwo": 5447, "Ġwel": 5448, "ideos": 5449, "Eng": 5450, "Ġcreative": 5451, "otal": 5452, "_string": 5453, "ĠDet": 5454, "env": 5455, "Ġtow": 5456, "Ġsolve": 5457, "âĢ¢": 5458, "Ġdanger": 5459, "night": 5460, "ĠPlease": 5461, "Acc": 5462, "Ġisland": 5463, "Ġcancer": 5464, "Ġinfluence": 5465, "indows": 5466, "ĠSince": 5467, "ĉĉĉĉ": 5468, "PO": 5469, "Ġremained": 5470, "xt": 5471, "Ġreports": 5472, "ĠPenn": 5473, "ĠVer": 5474, "plies": 5475, "ky": 5476, "ĠCommission": 5477, "ĠJose": 5478, "fr": 5479, "ĠFe": 5480, "Ġlaun": 5481, "Ġsubs": 5482, "ĠEach": 5483, "entry": 5484, "expected": 5485, "Ġolder": 5486, "len": 5487, "Ġcrow": 5488, "_module": 5489, "Ġrob": 5490, "'],Ċ": 5491, "po": 5492, "Ġlisted": 5493, "ĠPeople": 5494, "eria": 5495, "asy": 5496, "ÅĤ": 5497, "Base": 5498, "ĠTheir": 5499, "Ġwinning": 5500, "Ġancient": 5501, "ructions": 5502, "ĠScience": 5503, "aming": 5504, "Pol": 5505, "Ġpaint": 5506, "ĠLos": 5507, "CL": 5508, "_test": 5509, "ĠRev": 5510, "ato": 5511, "Ġneighbor": 5512, "IB": 5513, "fs": 5514, "ĠANY": 5515, "ĠWater": 5516, "Ġcompared": 5517, "ella": 5518, "Ġpurs": 5519, "Ġdyn": 5520, "rehens": 5521, "Ġfashion": 5522, "Ġ)": 5523, "ki": 5524, "uries": 5525, "ĠStr": 5526, "ĠIreland": 5527, "ĠAND": 5528, "Ġbelong": 5529, "ls": 5530, "related": 5531, "ĠCopyright": 5532, ".x": 5533, "igan": 5534, "ĠTer": 5535, "ĠKore": 5536, "query": 5537, "Ġassess": 5538, "Ġbottom": 5539, "Ġdivision": 5540, "Ġanti": 5541, "orrow": 5542, "Ġlaws": 5543, "ĠLo": 5544, "actory": 5545, "ĠSil": 5546, "ĠÂ£": 5547, "agon": 5548, "Ġtesting": 5549, "Ġsounds": 5550, "ĠBusiness": 5551, "ĠOld": 5552, "Ġbridge": 5553, "Ġgirls": 5554, "ĠSpanish": 5555, ".read": 5556, "Ġdepend": 5557, "ework": 5558, "wide": 5559, "ĠEducation": 5560, "Ġcounter": 5561, "Ġingredients": 5562, "ĠHam": 5563, "Ġspot": 5564, "ĠBur": 5565, "uan": 5566, "Ġappears": 5567, "Ġprison": 5568, "Ġcalls": 5569, "den": 5570, "Ġactions": 5571, "Ġfeatured": 5572, "Ġtal": 5573, "Ġdating": 5574, "Ġprofession": 5575, "hi": 5576, "Ġstanding": 5577, "udden": 5578, "Ġadministrative": 5579, "Ġtro": 5580, "gn": 5581, "Ġequal": 5582, "Ġfederal": 5583, "Ġharm": 5584, "ĠAut": 5585, "ĠMa": 5586, "Ġreligious": 5587, "Ġbul": 5588, "Ġmicro": 5589, "Ġroute": 5590, "Ġargument": 5591, "ĠBank": 5592, "ĠCast": 5593, "Ġpresence": 5594, "Ġhuge": 5595, "onday": 5596, "I'": 5597, "ĠÅ": 5598, "respond": 5599, "Ġloved": 5600, "vernor": 5601, "azz": 5602, "alls": 5603, "Ġwalking": 5604, "Ġonto": 5605, "ĠDi": 5606, "Ġinvestment": 5607, "Ġdoll": 5608, "Ġfat": 5609, "Ġbecomes": 5610, "Ġsitting": 5611, "Ġphil": 5612, "ĠPri": 5613, "Ġpassword": 5614, "Ġchannel": 5615, "sembly": 5616, "Ġspend": 5617, "ums": 5618, "istan": 5619, "Ġdeveloping": 5620, "Ġcommit": 5621, "ua": 5622, "ĠPet": 5623, ".data": 5624, "ifying": 5625, "Ġfort": 5626, "ecute": 5627, "Ġuns": 5628, "(data": 5629, "ITY": 5630, "ĠWood": 5631, "Ã³w": 5632, "Ġnice": 5633, "Ġended": 5634, "Ġowner": 5635, "_count": 5636, "ockey": 5637, "under": 5638, "Ġessay": 5639, "ĠFort": 5640, "Ġcheese": 5641, "usion": 5642, "Ġbrief": 5643, "Ġtherefore": 5644, ".test": 5645, "ĠSqu": 5646, "-se": 5647, "(name": 5648, "ĠScot": 5649, "ĠSecond": 5650, "Ra": 5651, "ĠAtl": 5652, "Ġchair": 5653, "ĠWeb": 5654, "Ġsample": 5655, "Ġtransform": 5656, "Ġconsult": 5657, "ĠUnder": 5658, "ĠSir": 5659, "Ġappearance": 5660, "ĠBase": 5661, "Ġopin": 5662, "Ġrain": 5663, "ĠVictor": 5664, "ĠZeal": 5665, "Ġcells": 5666, "ste": 5667, "Ġbasis": 5668, "ĠMain": 5669, "vention": 5670, "Ġdistribution": 5671, "ishop": 5672, "emporary": 5673, "isted": 5674, "Ġsty": 5675, "Ġdiscovered": 5676, "Ġcoast": 5677, "start": 5678, "Ġminor": 5679, "Ġfourth": 5680, "Don": 5681, "Ġappointed": 5682, "pre": 5683, "Ġmedal": 5684, "Ġsmaller": 5685, "EST": 5686, "_index": 5687, "Ġsmart": 5688, "Ġnet": 5689, "ĠWIT": 5690, "Ġsecure": 5691, "iences": 5692, "umni": 5693, "ĠWell": 5694, "Ġgone": 5695, "can": 5696, "ĠCongress": 5697, "FC": 5698, "Ġbrown": 5699, "Ġtemperature": 5700, "Ġthr": 5701, "Ġspecified": 5702, "edding": 5703, "ĠOffice": 5704, "ĠJim": 5705, "Ġestim": 5706, "/b": 5707, "Ġbra": 5708, "_for": 5709, "ption": 5710, "idget": 5711, "Ġauth": 5712, "ĠFootball": 5713, "anda": 5714, "ĠZealand": 5715, "ĠFacebook": 5716, "west": 5717, "fit": 5718, "Ġacademic": 5719, "Ġsugar": 5720, "Ġprop": 5721, "Ġoffering": 5722, "Ġhop": 5723, "ĠOnce": 5724, "Ġthoughts": 5725, "standing": 5726, "win": 5727, "Ġaim": 5728, "ĠCam": 5729, "strict": 5730, "Ġwrap": 5731, "-by": 5732, "Ġhous": 5733, "Ġenvironmental": 5734, "ĠSu": 5735, "ĠTop": 5736, "Ġregional": 5737, "VER": 5738, "\":Ċ": 5739, "Ġran": 5740, "Ġelected": 5741, "ĠIll": 5742, "Ġefficient": 5743, "ĠMinister": 5744, "Ġhappen": 5745, "ALL": 5746, "Ġmist": 5747, "Ġconference": 5748, "-L": 5749, "Ġagreed": 5750, ".R": 5751, "Ġbenefit": 5752, "gorith": 5753, "Ġsnow": 5754, "arp": 5755, "pm": 5756, "Object": 5757, "athe": 5758, "itz": 5759, "/l": 5760, "Ġfeedback": 5761, "Ġadvanced": 5762, "Ġquery": 5763, "Ġteaching": 5764, "foo": 5765, "ses": 5766, "Ġholding": 5767, "Ġpush": 5768, "Ġsusp": 5769, "Ġchief": 5770, "ĠSom": 5771, "Ġallowing": 5772, "-old": 5773, "AY": 5774, "Ġeconomy": 5775, "Ge": 5776, "Ġyield": 5777, "ads": 5778, "Ġwish": 5779, "Ġwants": 5780, "ĠAlthough": 5781, "ĠVirginia": 5782, "Ġcitiz": 5783, "ĠEven": 5784, "ĠFriday": 5785, "Ġfunctions": 5786, "BS": 5787, "oung": 5788, "_args": 5789, "Ġexercise": 5790, "Ġsmooth": 5791, "ora": 5792, "ĠMarket": 5793, "Ġappropriate": 5794, "rant": 5795, "Ġfilled": 5796, "Ġmatches": 5797, "Ġeasier": 5798, "Ġwearing": 5799, "ĠÎ": 5800, "ĠOper": 5801, "Ġreality": 5802, "osen": 5803, "Ġcontroll": 5804, "Ġbutter": 5805, "Ġpresented": 5806, "input": 5807, "Ġdetect": 5808, "ĠCommittee": 5809, "ban": 5810, "afe": 5811, "Out": 5812, "Ġjump": 5813, "onom": 5814, "Ġmusical": 5815, "utch": 5816, "Ser": 5817, "etch": 5818, "Ġtruth": 5819, "itors": 5820, "Ġperhaps": 5821, "Ġanx": 5822, "-A": 5823, "Ġcoffee": 5824, "ffect": 5825, "ĠDemocr": 5826, "Ġeth": 5827, "Ġphotos": 5828, "Ġimpress": 5829, "process": 5830, "Ġinsurance": 5831, "Ġpatient": 5832, "uty": 5833, "Ġbrain": 5834, "Ġempty": 5835, "ĠTim": 5836, "lean": 5837, "phas": 5838, "Ġ'%": 5839, "Ġfre": 5840, "Ġpackage": 5841, "Ġprotection": 5842, "reedom": 5843, "Ġstuff": 5844, "ĠName": 5845, "Ġahead": 5846, "oute": 5847, "itness": 5848, "ĠAngeles": 5849, "Ġfinish": 5850, "_un": 5851, "Trans": 5852, ".assertTrue": 5853, "ĠSaturday": 5854, "ribe": 5855, "Ġhotel": 5856, "Ġwine": 5857, "Ġcentre": 5858, "Ġafford": 5859, "(v": 5860, "NA": 5861, "Ġlogging": 5862, "Ġdetermine": 5863, "tra": 5864, "Ġgenerate": 5865, "ĠRel": 5866, "Ġadvance": 5867, "iler": 5868, "Ġscored": 5869, "uled": 5870, "Ġtaste": 5871, "ĠWAR": 5872, "gent": 5873, "Ġgain": 5874, "ĠMexico": 5875, "Ġdiet": 5876, "Ġcities": 5877, "'):": 5878, "ĠAnt": 5879, "Ġhelping": 5880, "gest": 5881, "Ġadvice": 5882, "Ġcatch": 5883, "alle": 5884, "-r": 5885, "example": 5886, "Ġrecip": 5887, "Ġadvent": 5888, "Ġsale": 5889, "ĠItaly": 5890, "claim": 5891, "Ġsubsequ": 5892, "iency": 5893, "Ġwinter": 5894, "iano": 5895, "Ġfaith": 5896, "ĠOl": 5897, "ĠCD": 5898, ".split": 5899, "Ġfans": 5900, "John": 5901, "Ed": 5902, "Ġbaby": 5903, "Ġinfo": 5904, "Gener": 5905, "Ã¤": 5906, "Ġguid": 5907, "ĠLand": 5908, "Ġtalking": 5909, "TH": 5910, "Ġdetailed": 5911, ".)Ċ": 5912, "Ġmanaged": 5913, "ĠPlan": 5914, "method": 5915, "-day": 5916, "--Ċ": 5917, "Ġwaste": 5918, "Ġexperienced": 5919, "ĠForm": 5920, "ĠPower": 5921, "Ġsenior": 5922, "reams": 5923, "Step": 5924, "Ġreplaced": 5925, "ĠHenry": 5926, "ĠSoftware": 5927, "oston": 5928, "esc": 5929, "Ġremaining": 5930, "Ġque": 5931, "ishes": 5932, "Rec": 5933, "Ġpolic": 5934, "ĠReturns": 5935, "Ġreasons": 5936, "Ġassociation": 5937, "eless": 5938, "Ġhappened": 5939, "ali": 5940, ":`": 5941, "Ġfab": 5942, "Ġentertain": 5943, "atever": 5944, "Ġjobs": 5945, "uous": 5946, "sm": 5947, "Ġsets": 5948, "Ġexactly": 5949, "Ġtables": 5950, "abilities": 5951, "Ġseat": 5952, "urban": 5953, "OC": 5954, "phone": 5955, "Return": 5956, "Ġupdated": 5957, "ĠPo": 5958, "yr": 5959, "Ġbeat": 5960, "ĠDec": 5961, "Ġmeant": 5962, "ĠDen": 5963, "ga": 5964, "Ġcritic": 5965, "-sh": 5966, "ĠVoiv": 5967, "uilding": 5968, "Ġremoved": 5969, "UP": 5970, "asp": 5971, "_B": 5972, "Ġreviews": 5973, "Ġconnected": 5974, "Ġtypically": 5975, "Ġcertainly": 5976, "Ġnative": 5977, "Ġ-*": 5978, "Ġmotiv": 5979, "ĠBlue": 5980, "Ġfocused": 5981, "odeship": 5982, "ĠGeorg": 5983, "Ġthrow": 5984, "Ġtruly": 5985, "Ġcomments": 5986, "Ġmel": 5987, "Ġsustainable": 5988, ".start": 5989, "Ġmill": 5990, "TestCase": 5991, "Two": 5992, "Ġcapacity": 5993, "ĠVoivodeship": 5994, "ker": 5995, ".ch": 5996, "chers": 5997, "ĠProfess": 5998, "ĠWhe": 5999, "Ġentered": 6000, "Ġcontinues": 6001, "Ġbillion": 6002, "Ġmo": 6003, "pective": 6004, "aped": 6005, "Ġrelax": 6006, "arant": 6007, "Ġswim": 6008, "Ġsister": 6009, "OK": 6010, "ĠChristmas": 6011, "oving": 6012, "bur": 6013, "Ġfinding": 6014, "Ġheight": 6015, "Ġevening": 6016, "ingu": 6017, "ournament": 6018, "Ġgarden": 6019, "Ġreference": 6020, "/s": 6021, "Ġstudio": 6022, "ĠI've": 6023, "ĠEngine": 6024, "Ġ->": 6025, "Ġprofile": 6026, "Ġpredict": 6027, "ĠValueError": 6028, "ĠID": 6029, "Ġcrowd": 6030, "ĠDown": 6031, "ores": 6032, "Ġrat": 6033, "ĠBoy": 6034, "top": 6035, "yes": 6036, "Ġthread": 6037, "Ġchicken": 6038, "While": 6039, "Ġvehicle": 6040, "ĠValley": 6041, "Some": 6042, "Ġ]Ċ": 6043, "Ġcamera": 6044, "Ġcars": 6045, "ĠProgram": 6046, "ĠEmp": 6047, "ĠTimes": 6048, "soft": 6049, "ĠUSA": 6050, "ĠServices": 6051, "refix": 6052, "Ġmedium": 6053, "Ġfellow": 6054, ");Ċ": 6055, "Ġvan": 6056, "Ġbatter": 6057, "Ġcloud": 6058, "BA": 6059, "Ġdial": 6060, "Ġsess": 6061, "Ġcorpor": 6062, "Ġscale": 6063, "_str": 6064, "Ġstated": 6065, "aa": 6066, "Ġeffectively": 6067, "Ġprepar": 6068, "ĠArts": 6069, "Ġdriver": 6070, "fe": 6071, "ucky": 6072, "UM": 6073, "Ġ{}": 6074, "Ġhistorical": 6075, "Ġfestival": 6076, "ĠEarth": 6077, "stances": 6078, "roid": 6079, "lines": 6080, "Ġinstitut": 6081, "Ġtheme": 6082, "Ġbroadcast": 6083, "XX": 6084, "Ġdespite": 6085, "ĠBob": 6086, "?\"Ċ": 6087, "igration": 6088, "isation": 6089, "ĠMod": 6090, "Ġrestaurant": 6091, "Ġmarriage": 6092, "river": 6093, "Ġbelieved": 6094, "Ġfle": 6095, "Ġprices": 6096, "ĠMur": 6097, "Ġparties": 6098, "adium": 6099, "ĠGiven": 6100, "Ġmotor": 6101, "Ġnewsp": 6102, "Ġvideos": 6103, "Ġwriters": 6104, "atically": 6105, "emp": 6106, "erman": 6107, "Ġnor": 6108, "Ġsquare": 6109, "Ġhomes": 6110, "Ġremote": 6111, "aun": 6112, "Ġresidents": 6113, "ĠJesus": 6114, "Ġcris": 6115, "Ġdish": 6116, "-of": 6117, "Ġcorrespond": 6118, "~~": 6119, "Ġforced": 6120, "rees": 6121, "Ġphoto": 6122, "Ġparams": 6123, "ĠJo": 6124, "oration": 6125, "Ġseconds": 6126, "Ġmajority": 6127, "orter": 6128, "Ġbright": 6129, "info": 6130, "Ġdream": 6131, "AME": 6132, "ĠSeries": 6133, "ighter": 6134, "olume": 6135, "Ġpros": 6136, "Ġillustr": 6137, "lig": 6138, "Ġvirtual": 6139, "Ġec": 6140, "Ġwaiting": 6141, "ĠPremise": 6142, "Ġplatforms": 6143, "Ġcarried": 6144, "Ġdu": 6145, "Ġ'''Ċ": 6146, "was": 6147, "Ġgrew": 6148, "ĠDirector": 6149, "Ġestablishment": 6150, "ĠMatt": 6151, "ĠST": 6152, "Ġmetal": 6153, "align": 6154, "ĠCat": 6155, "Ġdriving": 6156, "rehensive": 6157, "Ġeditor": 6158, "(a": 6159, "ĠCO": 6160, "Ġdedicated": 6161, "_version": 6162, "cope": 6163, "Exception": 6164, "Ġspring": 6165, "Ġemotional": 6166, "ĠWal": 6167, "ĠFestival": 6168, "Ġmostly": 6169, "ĠColumb": 6170, "Ġnavig": 6171, "Ġincome": 6172, "pers": 6173, "Ġment": 6174, "Ġ.Ċ": 6175, "razil": 6176, "Ġcore": 6177, "Ġtransportation": 6178, "{'": 6179, "Ġjson": 6180, "clusive": 6181, "Ġexecutive": 6182, "Ġsched": 6183, "Ġparser": 6184, "ĠPan": 6185, "ensus": 6186, "Ġotherwise": 6187, "orough": 6188, "ĠDesign": 6189, "ĠTeam": 6190, "-n": 6191, "Ġhelpful": 6192, "-term": 6193, "etic": 6194, "ration": 6195, "Go": 6196, "Ġframe": 6197, "Ġmountain": 6198, "ĠGen": 6199, "sl": 6200, "MA": 6201, "ylvan": 6202, "left": 6203, "Ġfra": 6204, "Ġproced": 6205, "ĠNetwork": 6206, "Ġtasks": 6207, "ĠOffic": 6208, "kin": 6209, "Ġn't": 6210, "Ġregarding": 6211, "OW": 6212, "Now": 6213, "Me": 6214, "Check": 6215, "ĠFOR": 6216, "email": 6217, "Ġselection": 6218, "Ġnotes": 6219, "Ġyouth": 6220, "Ġ()": 6221, "\\\\": 6222, "zen": 6223, "ĠSpe": 6224, "zy": 6225, "annels": 6226, "-H": 6227, "Ġvolunte": 6228, "Ġhy": 6229, "Ġlegisl": 6230, "while": 6231, "Ġsector": 6232, "Ġrare": 6233, "Ġenhance": 6234, "Ġshowed": 6235, "ĠHT": 6236, "arc": 6237, "Ġlaunch": 6238, "Ġreducing": 6239, "abin": 6240, "iration": 6241, "uable": 6242, "ĠDevelopment": 6243, "Ġcoord": 6244, "oster": 6245, "Ġvac": 6246, "Ġdefinitely": 6247, "Ġhyd": 6248, "ĠLong": 6249, ".objects": 6250, "ctors": 6251, "Ġcer": 6252, "Ġadvantage": 6253, "olve": 6254, "ĠLine": 6255, "Ġalternative": 6256, "Ġban": 6257, "Ġfav": 6258, "ersonal": 6259, "Ġenem": 6260, "rier": 6261, "Ġsuc": 6262, "Ġsoul": 6263, ".user": 6264, "ariable": 6265, "CS": 6266, "Ġstick": 6267, "Ġhel": 6268, "ĠRun": 6269, "Ġdefined": 6270, "ĠDev": 6271, "iams": 6272, "Ġrose": 6273, "Ġwat": 6274, "Ġborder": 6275, "odies": 6276, "missions": 6277, "riendly": 6278, "Ġâ": 6279, "ittest": 6280, "ipl": 6281, ".L": 6282, "Ġdelivery": 6283, "Ġexchange": 6284, "ĠMartin": 6285, "ilder": 6286, "_x": 6287, "ĠJud": 6288, "Ġthick": 6289, "Ġconver": 6290, "Ġadapt": 6291, "State": 6292, "Ġlabor": 6293, "Ġdirectory": 6294, "rastructure": 6295, "Ġretail": 6296, "Ġbill": 6297, "Here": 6298, "Ġfloat": 6299, "Ġcreation": 6300, "ĠWARRAN": 6301, "ushed": 6302, "Ġclin": 6303, "Raises": 6304, ".res": 6305, "osure": 6306, "pute": 6307, "ĠHaw": 6308, "Ġlayer": 6309, "greg": 6310, "Ġofficer": 6311, "akers": 6312, "olved": 6313, "Ġpatterns": 6314, "ĠPac": 6315, "Ġvocals": 6316, "ĠBas": 6317, "gu": 6318, "Ġlaunched": 6319, "Ġsport": 6320, "_log": 6321, ".update": 6322, "Ġfacilities": 6323, "iest": 6324, "Ġerrors": 6325, "ying": 6326, "Ġkitchen": 6327, "IO": 6328, "apes": 6329, "pack": 6330, "Ġexpression": 6331, "Ġsymbol": 6332, "iser": 6333, "Stud": 6334, "Ġchain": 6335, "Te": 6336, "Ġtechnical": 6337, "\"),Ċ": 6338, "inating": 6339, "Ġcombined": 6340, "Ġfell": 6341, "Ġowned": 6342, "Em": 6343, "inding": 6344, "Ġanimal": 6345, "Ġmilk": 6346, "ura": 6347, "Ġpepper": 6348, "Ġweap": 6349, "ĠVis": 6350, "Ġsucceed": 6351, "Ġpolicies": 6352, ".run": 6353, "ĠMonday": 6354, "Ġtoward": 6355, "ĠMax": 6356, "ĠJournal": 6357, "ĠBi": 6358, "author": 6359, "ĠManagement": 6360, "Ġlib": 6361, "Ġemphas": 6362, "Ġquant": 6363, "uts": 6364, "Ġpassion": 6365, "Ġmurder": 6366, "ĠCare": 6367, "Ġarms": 6368, "Ġbasketball": 6369, "ometry": 6370, "_com": 6371, "ĠShow": 6372, "During": 6373, "ocument": 6374, "ooking": 6375, "ĠIrish": 6376, "ented": 6377, "Inter": 6378, "main": 6379, "Ġrender": 6380, "rical": 6381, "real": 6382, "Ġfalse": 6383, "ba": 6384, "Ġmuseum": 6385, "Ġnoted": 6386, "ylvania": 6387, "Ġmut": 6388, "ictionary": 6389, "Ġprotein": 6390, "lower": 6391, "ja": 6392, "Text": 6393, "Ġdivid": 6394, "km": 6395, "Ġupper": 6396, "Ġfeat": 6397, "Ġnine": 6398, "Ġoutdo": 6399, "ĠMen": 6400, "command": 6401, "ĠWhy": 6402, "quality": 6403, "ĠFre": 6404, "_all": 6405, "words": 6406, "Ġinterp": 6407, "Ġsolid": 6408, "?\"": 6409, "tenance": 6410, "ĠAM": 6411, "parse": 6412, "yan": 6413, "Ġfurn": 6414, "Ġpictures": 6415, "ĠMas": 6416, "_text": 6417, "ĠSecret": 6418, "ĠAny": 6419, "Ġexplain": 6420, "Ġcraft": 6421, "andle": 6422, "Ġinterface": 6423, "Ġtend": 6424, "Ġamb": 6425, "Ġju": 6426, "Ġprepared": 6427, "gypt": 6428, "Ġcooking": 6429, "ĠData": 6430, "Bl": 6431, "////////": 6432, "kins": 6433, "Ġidentity": 6434, "allback": 6435, "\"I": 6436, "Ġcontest": 6437, "osoph": 6438, "reme": 6439, "Ġfilename": 6440, "ears": 6441, "estic": 6442, "ĠTour": 6443, "Ġ'/": 6444, "Overall": 6445, "ĠReview": 6446, "going": 6447, "Ġmaybe": 6448, "Ġattended": 6449, "anation": 6450, "ĠBet": 6451, "Ġcorner": 6452, "ĠElect": 6453, "Ġmessages": 6454, "Ġintellig": 6455, "aph": 6456, "ĠType": 6457, "_ops": 6458, "Ġcombination": 6459, "rid": 6460, "amin": 6461, "Ġedition": 6462, "Ġbrow": 6463, "pet": 6464, "owder": 6465, "Ġflex": 6466, "fast": 6467, "Ġmaximum": 6468, "Reg": 6469, "Ġbeach": 6470, "arrow": 6471, "bo": 6472, "Ġapart": 6473, "RL": 6474, "Ġuniversity": 6475, "Ġfill": 6476, ".assertRaises": 6477, "Ġproposed": 6478, "KE": 6479, "Ġcommission": 6480, "Ġmeasures": 6481, "Ġrise": 6482, "ye": 6483, "Ġchoices": 6484, "duction": 6485, "View": 6486, "Ġapplied": 6487, "Ġawarded": 6488, "bed": 6489, "Of": 6490, "Ġdrug": 6491, "Ġengagement": 6492, "ĠBoston": 6493, "Ġvision": 6494, "Ġsomew": 6495, "Ġestate": 6496, "Ġhorse": 6497, "Ġreduced": 6498, "azon": 6499, "GL": 6500, "Ġslightly": 6501, "ĠWrite": 6502, "Pr": 6503, "Ġsac": 6504, "Ġcomfortable": 6505, "Ġvictory": 6506, "ĠSwed": 6507, "ograp": 6508, "Ġgall": 6509, "Ġfruit": 6510, "Ġdoctor": 6511, "ĠWomen": 6512, "Ġdomain": 6513, "rive": 6514, "Ab": 6515, "Ġgift": 6516, "Ġplot": 6517, "iveness": 6518, "Ġagreement": 6519, "Ġshel": 6520, "Ġsplit": 6521, "Ġleadership": 6522, "ran": 6523, "Ġcompar": 6524, "Ġinternal": 6525, "ĠJul": 6526, "osis": 6527, "Ġfootballers": 6528, "iana": 6529, "IA": 6530, "ĠRussia": 6531, "Ġtrial": 6532, "Ġagricult": 6533, "oviet": 6534, "Ġpayment": 6535, "fol": 6536, "ati": 6537, "Ġtheory": 6538, "fix": 6539, "Ġinterests": 6540, "Ġclassic": 6541, "Ġsouthern": 6542, "account": 6543, "Ġarrest": 6544, "Ġpit": 6545, ".N": 6546, "Ġflag": 6547, "ĠCarolina": 6548, "Log": 6549, "Ġbag": 6550, "Ġbath": 6551, "ounded": 6552, "outs": 6553, "Ġtemplate": 6554, "Ġstars": 6555, "Ġven": 6556, "Ġtoken": 6557, "Ġarrived": 6558, "ĠMiddle": 6559, "ographic": 6560, ")s": 6561, "istribut": 6562, "Ġyellow": 6563, "ĠAff": 6564, "ĠMot": 6565, "ĠMicro": 6566, "Ġfant": 6567, "Ġrailway": 6568, "ĠMos": 6569, "Ġchampionship": 6570, "anguages": 6571, "Ġoperating": 6572, "Ġstone": 6573, "Ġassum": 6574, "cs": 6575, "ĠBow": 6576, "scape": 6577, "Ġactor": 6578, ".py": 6579, "Ġaircraft": 6580, "Ġ--------": 6581, "ATION": 6582, "ĠGra": 6583, "Ġrom": 6584, "Ġstructures": 6585, "ednes": 6586, "Ġfollows": 6587, "(os": 6588, "Ġpassage": 6589, "ĠArab": 6590, "Ġinternet": 6591, "va": 6592, "ursday": 6593, "Ġwatching": 6594, "Ġschedule": 6595, "awn": 6596, "Ġincred": 6597, "fficient": 6598, "urer": 6599, "icenses": 6600, "CA": 6601, "Ġbutton": 6602, "SP": 6603, "{}": 6604, "_ids": 6605, "Ġmouth": 6606, "Ġseeing": 6607, "Class": 6608, "ĠId": 6609, "Ġdetermined": 6610, "-R": 6611, "Ġflat": 6612, "Answer": 6613, "(len": 6614, "ĠMedia": 6615, "sylvania": 6616, "andon": 6617, "rick": 6618, "ĠIns": 6619, "Ġbought": 6620, "_obj": 6621, "Ġtwice": 6622, "Ġgod": 6623, "ĠInternet": 6624, "Am": 6625, "Ġconcent": 6626, "ĠCould": 6627, "Ġconsequ": 6628, "ĠNorthern": 6629, "uis": 6630, "ednesday": 6631, "ocolate": 6632, "stream": 6633, "Ġintended": 6634, "Ġstret": 6635, "poses": 6636, "Fil": 6637, "ĠInf": 6638, "Ġterrit": 6639, "Ġweekend": 6640, "Ġspect": 6641, "Ġbread": 6642, "ollowing": 6643, "ao": 6644, "Ġarmy": 6645, "ĠPython": 6646, "ĠApple": 6647, "Ġcomprehensive": 6648, "_json": 6649, "ĠWall": 6650, "Ġhttps": 6651, "admin": 6652, "Let's": 6653, "Ġrealized": 6654, "itan": 6655, "ĠFire": 6656, "Ġrepresented": 6657, "ameters": 6658, "Ġkeeping": 6659, "cious": 6660, "Ġprocesses": 6661, "ĠWindows": 6662, "ĠJones": 6663, "ĠOhio": 6664, "ĠSpecial": 6665, "Sub": 6666, "xx": 6667, "grade": 6668, "ĠSand": 6669, "Ġleads": 6670, "Ġrent": 6671, "ĠColor": 6672, "Ġdraft": 6673, ")))Ċ": 6674, "Ġhall": 6675, "Ġdtype": 6676, "hem": 6677, "ifications": 6678, "Ġchanging": 6679, "ester": 6680, "unior": 6681, "ĠFilm": 6682, "ĠEnter": 6683, "Ġarticles": 6684, "ampion": 6685, "Ġcash": 6686, "show": 6687, "iture": 6688, "people": 6689, "Ġcards": 6690, "Ġclaims": 6691, "TS": 6692, "Ġsudden": 6693, "ulty": 6694, "_arg": 6695, "Ġfan": 6696, "Other": 6697, "Ġpun": 6698, "ĠJohnson": 6699, "Ġbatt": 6700, "Ġcrew": 6701, "Ġvegetables": 6702, "Ġoccasion": 6703, "Ġarchitecture": 6704, "ĠAsia": 6705, "Ġtechnologies": 6706, "(e": 6707, ".\\": 6708, "header": 6709, "Ġwire": 6710, "Ġalgorith": 6711, "Ġseasons": 6712, "uset": 6713, "ĠCard": 6714, "Ġnearby": 6715, "Ġcourses": 6716, "Ġgar": 6717, "Ġalumni": 6718, "ĠSaint": 6719, "-the": 6720, "ĠWilliams": 6721, "Ġmunicipality": 6722, "Ġvote": 6723, "Ġcategory": 6724, "Ã¨": 6725, "Path": 6726, "Ġsilver": 6727, "Ġextended": 6728, "(object": 6729, "ca": 6730, "Ġconcert": 6731, "Ġhighlight": 6732, "Ġstandards": 6733, ",'": 6734, "bridge": 6735, "Ġcontaining": 6736, "Ġtracks": 6737, "Ġcart": 6738, "ugby": 6739, "Ġproceed": 6740, "ĠLike": 6741, "ĠCommunity": 6742, "pha": 6743, "ĠCross": 6744, "iÄ": 6745, "Comm": 6746, "heast": 6747, "ĠTO": 6748, "erty": 6749, "ĠCorpor": 6750, "Ġimproved": 6751, "gency": 6752, "uesday": 6753, "Ġzone": 6754, "ira": 6755, "Ġhealthcare": 6756, "arly": 6757, "iform": 6758, "emon": 6759, "icate": 6760, "Ġhun": 6761, ".key": 6762, "Ġrh": 6763, "enger": 6764, "Ġwa": 6765, "Ġtail": 6766, "Ġce": 6767, "ĠLee": 6768, "Ġlisten": 6769, "kl": 6770, "Ġconcerns": 6771, "Ġ[\"": 6772, "Ġadministration": 6773, "_op": 6774, "Ġfunding": 6775, "Ġproducer": 6776, "Ġwarn": 6777, "Ġcry": 6778, "stone": 6779, "oral": 6780, "Ġmanner": 6781, "ĠOrgan": 6782, "Ġsky": 6783, "ĠJoseph": 6784, ".html": 6785, "ĠSpain": 6786, "ugh": 6787, "DF": 6788, "ĠOpt": 6789, "ello": 6790, "ĠBul": 6791, "','": 6792, "uri": 6793, "erry": 6794, "bury": 6795, "Ġgather": 6796, "Op": 6797, "illy": 6798, "Ġdepending": 6799, "Ġcolon": 6800, "Ġengaging": 6801, "Ġton": 6802, "enth": 6803, ".E": 6804, "(*": 6805, "Ġdecre": 6806, "Ġencourage": 6807, "water": 6808, "Ġkill": 6809, "ologist": 6810, "Ġquiet": 6811, "this": 6812, "Ġbass": 6813, "Request": 6814, "ansas": 6815, "Ġaccompl": 6816, "_date": 6817, "Ġofficers": 6818, "ĠGal": 6819, "_spec": 6820, "Ġdiss": 6821, "mt": 6822, "het": 6823, "!\"": 6824, "-re": 6825, "ensity": 6826, "_on": 6827, ".cont": 6828, "Ġkwargs": 6829, "Ġfuel": 6830, "Ġarguments": 6831, "ĠBrazil": 6832, "/p": 6833, "itage": 6834, "Ġstores": 6835, "mosp": 6836, "ĠLim": 6837, "struction": 6838, "Ġminute": 6839, "ĠWales": 6840, "Ġinjury": 6841, "ycl": 6842, "Ġfailure": 6843, "orders": 6844, "Ġshopping": 6845, "TV": 6846, "Ġcarbon": 6847, "ĠRadio": 6848, "Ġtherapy": 6849, "Ġresear": 6850, "ila": 6851, ".find": 6852, "ĠIP": 6853, "Ġeating": 6854, "ĠEmpire": 6855, "ih": 6856, "center": 6857, "TY": 6858, "ennis": 6859, "Ġdesigns": 6860, "inition": 6861, "Ġip": 6862, "Ġrestrict": 6863, "Ġinfrastructure": 6864, "_sub": 6865, "ĠPennsylvania": 6866, "weet": 6867, "Ġfro": 6868, "ĠEll": 6869, "Ġcaught": 6870, "Ġtaught": 6871, "Ġcounty": 6872, "ĠEgypt": 6873, "Ġstrip": 6874, "ĠDom": 6875, "ĠGall": 6876, "Ġ..": 6877, "(h": 6878, "oured": 6879, "Ġshowing": 6880, "Ġvisitors": 6881, "isters": 6882, "Ġ//": 6883, "Ġpil": 6884, "Ġbowl": 6885, "Ġaccident": 6886, "Ġvariable": 6887, "Ġrapid": 6888, "ĠLight": 6889, "Ġquot": 6890, "ipal": 6891, "Ġpartnership": 6892, "Ġraw": 6893, "ĠMrs": 6894, "Ġnorthern": 6895, "ĠBack": 6896, "istration": 6897, "SC": 6898, "FT": 6899, "Ġbiggest": 6900, "Ġlocations": 6901, "Ġextremely": 6902, "link": 6903, "ĠChief": 6904, "Ġmeat": 6905, "ĠUN": 6906, "ĠLibrary": 6907, "color": 6908, "Ġhero": 6909, "inent": 6910, "hew": 6911, "sole": 6912, "Ġofficials": 6913, "Ġthank": 6914, "Ġaffected": 6915, "ĠRh": 6916, "Ġcollaboration": 6917, "achuset": 6918, "Ġisn": 6919, "Config": 6920, "achusetts": 6921, "ĠPop": 6922, "Ġbegins": 6923, "Ġideal": 6924, "(cl": 6925, "Ġdocuments": 6926, "PR": 6927, "ĠTem": 6928, "_names": 6929, "uzz": 6930, "Ġsharing": 6931, "Ġdecisions": 6932, "entle": 6933, "town": 6934, "otic": 6935, "Ġdistinct": 6936, "Ġcitizens": 6937, "mes": 6938, "types": 6939, "count": 6940, "map": 6941, "Ġfaced": 6942, "icensed": 6943, "Ġagent": 6944, "ĠHon": 6945, "property": 6946, "Ġplanet": 6947, "Ġcircum": 6948, "ogether": 6949, "Ġnorm": 6950, "Address": 6951, "Ġmask": 6952, "Ġhonor": 6953, "-step": 6954, "Ġauthentic": 6955, "inity": 6956, "Your": 6957, "[-": 6958, "Ġmixed": 6959, ".j": 6960, "\"),": 6961, "Please": 6962, "Ġtells": 6963, "Ġknows": 6964, "ĠBal": 6965, "remove": 6966, "ĠNavy": 6967, "Co": 6968, "ĠAR": 6969, "ĠThanks": 6970, "Ġwalls": 6971, "Ġiter": 6972, "ĠSouthern": 6973, "Ġcapture": 6974, "awa": 6975, "Ġsingles": 6976, "Ġunknown": 6977, "ĠSarah": 6978, "_int": 6979, "Ġshut": 6980, "Ġrecommendations": 6981, "ĠStand": 6982, "Ġcrim": 6983, "Ġtun": 6984, "teen": 6985, "Ġweak": 6986, "ĠCharl": 6987, "nic": 6988, "upport": 6989, "Ġbaseball": 6990, "Ġconducted": 6991, "_line": 6992, "ĠWay": 6993, "Ġplus": 6994, "Ġforg": 6995, "ĠBoth": 6996, "Ġscientific": 6997, "ĠBra": 6998, "ĠMcC": 6999, "Ġloan": 7000, "Ġimplied": 7001, "swith": 7002, "Ġjoy": 7003, "ĠBeach": 7004, "Ġinstructions": 7005, "Ġtensor": 7006, "Ġathlet": 7007, "Ġvehicles": 7008, "Ġbond": 7009, ".info": 7010, "_node": 7011, "Ġengineering": 7012, "Ġstood": 7013, "Ġadvertising": 7014, "irty": 7015, "Ġconven": 7016, "Ġheader": 7017, "gers": 7018, "Ġbroken": 7019, "Ġpractical": 7020, "you": 7021, "ĠNight": 7022, "adow": 7023, ".ext": 7024, "ooks": 7025, "ements": 7026, "Ġrecording": 7027, "Ġvaluable": 7028, "estyle": 7029, "rome": 7030, "-friendly": 7031, "Ġforget": 7032, "ĠJewish": 7033, "oor": 7034, "Ġride": 7035, "Ġprompt": 7036, "Ġinspired": 7037, "ĠSol": 7038, "ĠYoung": 7039, "Ġsignal": 7040, "ĠQueen": 7041, "iner": 7042, "-free": 7043, "Ġparameters": 7044, "Ġboys": 7045, "Â°": 7046, "Ġrenewable": 7047, "ĠFrancisco": 7048, "yer": 7049, "Ġearned": 7050, "lers": 7051, "ĠRead": 7052, "Ġvs": 7053, "|-Ċ": 7054, "Ġfunds": 7055, "Ġsurvey": 7056, "ĠNOT": 7057, "Ġinvolves": 7058, "keep": 7059, "Ġreaders": 7060, "uccess": 7061, "ĠJoe": 7062, ".close": 7063, "Ġcommittee": 7064, "ĠBir": 7065, "Ġengage": 7066, "hat": 7067, "Ġunivers": 7068, "actor": 7069, "Ġactress": 7070, "oga": 7071, "Ġimplementation": 7072, "Node": 7073, "ipped": 7074, "dout": 7075, "_object": 7076, "iliar": 7077, "_per": 7078, "ĠException": 7079, "Ġiron": 7080, "Ġheav": 7081, "ĠLittle": 7082, "Ġelim": 7083, "Ġwilling": 7084, "Ġkid": 7085, "ĠWin": 7086, "encing": 7087, "'}),Ċ": 7088, "ĠTele": 7089, "Ġends": 7090, "Ġinstalled": 7091, "ĠâĢ¦": 7092, "Ġeducational": 7093, "idential": 7094, "obs": 7095, "Ġassist": 7096, "ĠPacific": 7097, "Ġconfiguration": 7098, "Ġescape": 7099, ".load": 7100, "Ġanxiety": 7101, "Ġmixture": 7102, "ĠConference": 7103, "Ġpolitician": 7104, "ĠMichigan": 7105, "Model": 7106, "Ġpainting": 7107, "Ġnarr": 7108, "agram": 7109, "ogue": 7110, "nergy": 7111, "Ġresulting": 7112, "ĠLuc": 7113, "ĠTechnology": 7114, "Ġadop": 7115, "Ġdoubt": 7116, "Ġconclusion": 7117, "ĠBecause": 7118, "Ġflight": 7119, "\"]Ċ": 7120, "(value": 7121, "Ġenable": 7122, "Ġinstrument": 7123, "ĠIII": 7124, "ĠIsl": 7125, "abb": 7126, "ulpt": 7127, "ĠCentre": 7128, "Ġboat": 7129, "ĠBritain": 7130, "Ġflowers": 7131, "Ġcalling": 7132, "Ġmeal": 7133, "pc": 7134, "Ġhousehold": 7135, "Ġbranch": 7136, "Ġagree": 7137, "Ġdelicious": 7138, "orig": 7139, "Ġremark": 7140, "Ġstorm": 7141, "ĠJersey": 7142, "Äģ": 7143, "Ġprocessing": 7144, "web": 7145, "Ġassistant": 7146, "ĠUl": 7147, "Ġassistance": 7148, "Ġsurrounding": 7149, "ĠWho": 7150, "Ġtournament": 7151, "Mar": 7152, "status": 7153, "ĠGame": 7154, "DS": 7155, "ĠAwards": 7156, "Ð°": 7157, "Ġdefense": 7158, "Ġspons": 7159, "size": 7160, "Ġproperly": 7161, "Ġassign": 7162, "Ġregions": 7163, "adel": 7164, "ĠMassachusetts": 7165, "Ġteachers": 7166, "_request": 7167, "Ġlicense": 7168, "ĠLog": 7169, "Ġvent": 7170, ".I": 7171, "Ġsexual": 7172, "gal": 7173, ".client": 7174, "Ġinh": 7175, "appe": 7176, "ĠAnother": 7177, "unning": 7178, "Ġsuccessfully": 7179, "life": 7180, "Ġlose": 7181, "ĠMike": 7182, ".array": 7183, "Ġrot": 7184, "Ġemotions": 7185, "Ġserves": 7186, "atetime": 7187, "(request": 7188, "after": 7189, "Ã³n": 7190, "creen": 7191, "Ġlatter": 7192, "track": 7193, "Prem": 7194, "member": 7195, "ĠMaster": 7196, "Ġswitch": 7197, ".config": 7198, "Ġdatetime": 7199, "Ġcontrast": 7200, "-like": 7201, "Ġring": 7202, "Ġwhatever": 7203, "page": 7204, ".un": 7205, "ographer": 7206, "sor": 7207, "Ġkick": 7208, "Ġdrama": 7209, "anche": 7210, "It's": 7211, "uffer": 7212, "ĠMah": 7213, "Ġunion": 7214, "Ġalle": 7215, "ĠParliament": 7216, "ĠMid": 7217, "roc": 7218, "ĠHead": 7219, "English": 7220, "Ġatmosp": 7221, "ĠSoviet": 7222, "Ġspending": 7223, "how": 7224, "Ġprofessor": 7225, "Ġmail": 7226, "Ġregularly": 7227, "Ġchart": 7228, "Ġreferred": 7229, "mina": 7230, "ĠKent": 7231, "TE": 7232, "osa": 7233, "covery": 7234, "inem": 7235, "Group": 7236, "iples": 7237, "\">": 7238, "Ġpropos": 7239, "eps": 7240, "Ġmort": 7241, "ĠMP": 7242, "ĠHor": 7243, "QL": 7244, "(C": 7245, "Per": 7246, "nections": 7247, "Ġaid": 7248, "ĠRet": 7249, "Ġexperiment": 7250, "Ġspecifically": 7251, "ĠNY": 7252, "Ġwealth": 7253, "ĠPass": 7254, "uilt": 7255, "ĠEp": 7256, "Ġmenu": 7257, "Ġroles": 7258, "Ġinstitutions": 7259, "Ġsteel": 7260, "ialize": 7261, "ĠInformation": 7262, "ĠTH": 7263, "ĠUser": 7264, "Ġspr": 7265, "Ġcomponents": 7266, "arry": 7267, "Ġfeaturing": 7268, "Ġinvolve": 7269, "ĠPrince": 7270, "elta": 7271, "âĢĺ": 7272, "rivate": 7273, "âĢľI": 7274, "Ġdepth": 7275, "ĠPak": 7276, ".debug": 7277, "cluded": 7278, "Ġagency": 7279, "ĠOnly": 7280, "(path": 7281, "rence": 7282, "Ġguy": 7283, "arlic": 7284, "ĠTake": 7285, "rot": 7286, "Ġsuit": 7287, "').": 7288, "inations": 7289, "Ġwedding": 7290, "plot": 7291, "Ġ'.": 7292, "Ġdinner": 7293, "Back": 7294, "ĠTwitter": 7295, "ĠMat": 7296, "ected": 7297, "Ġurban": 7298, "Ġwonderful": 7299, "ME": 7300, "Ġverb": 7301, "Ġextract": 7302, "embers": 7303, "-th": 7304, "Ġspeech": 7305, "]:Ċ": 7306, "Us": 7307, "Ġtopic": 7308, "Ġliterature": 7309, "Ġguarant": 7310, "num": 7311, "Ġfacility": 7312, "Ġholds": 7313, "Ġalt": 7314, "Ġdie": 7315, "Ġrecommended": 7316, "Rem": 7317, "Ġsympt": 7318, "NS": 7319, "trans": 7320, "Ġfactor": 7321, "Ġconsists": 7322, ".status": 7323, "Ġcommonly": 7324, "ĠVan": 7325, "Ġnuc": 7326, "Ġshift": 7327, "@example": 7328, "ded": 7329, "ĠCoast": 7330, "Ġencounter": 7331, "Ġcrime": 7332, "_L": 7333, "ĠGirl": 7334, "Ġwarrant": 7335, "Ġneighborhood": 7336, "Ġorders": 7337, "Ġpowder": 7338, "ĠApp": 7339, "Ġmaintenance": 7340, "ĠCarl": 7341, "------": 7342, "cell": 7343, "Ġaccepted": 7344, "render": 7345, "kg": 7346, "Ġisn't": 7347, "ulf": 7348, "Ġcmd": 7349, "base": 7350, "Ġletters": 7351, "May": 7352, "Ġguard": 7353, "Ġthousands": 7354, "dy": 7355, "ettings": 7356, "doc": 7357, "Ġvir": 7358, "-ch": 7359, "Ġchosen": 7360, "ĠCustom": 7361, "ulti": 7362, "According": 7363, "arters": 7364, "rove": 7365, "aka": 7366, "ĠRegister": 7367, "Ġpoem": 7368, "Ġbes": 7369, "Ġmotion": 7370, "Ġadm": 7371, "ansion": 7372, "Ġversions": 7373, "Ð¾": 7374, "Ġhousing": 7375, "emic": 7376, "Ġnob": 7377, "icode": 7378, "ĠJeff": 7379, "Ġcommitted": 7380, "ĠBre": 7381, "king": 7382, "ĠStart": 7383, "Ġportion": 7384, "\"\"\"": 7385, "burgh": 7386, "```Ċ": 7387, "Ġindustrial": 7388, "Ġguests": 7389, "HOUT": 7390, "ponent": 7391, "Ġuid": 7392, "Ġimplemented": 7393, "aks": 7394, "wan": 7395, "ĠCho": 7396, "Ġguess": 7397, "ko": 7398, "Ġrooms": 7399, "orney": 7400, "\\xf": 7401, "Ġscr": 7402, "Ġprepare": 7403, "Ġvary": 7404, "Ġretired": 7405, "Ġdesired": 7406, "Ġol": 7407, "aser": 7408, "gian": 7409, "Ġfrequently": 7410, "Ġelev": 7411, "Ġgoods": 7412, "ĠSea": 7413, "ĠEnd": 7414, "Ġtall": 7415, "cho": 7416, "enses": 7417, "Int": 7418, "ĠRay": 7419, "Ġordered": 7420, "ĠHistoric": 7421, "Ġrecognized": 7422, "amber": 7423, "Ġsequence": 7424, "Ġphase": 7425, "stall": 7426, "ĠLear": 7427, "Ġselling": 7428, "Ġopinion": 7429, "cp": 7430, "access": 7431, "Ġmarkets": 7432, "han": 7433, "_map": 7434, "_output": 7435, "Ġremind": 7436, "First": 7437, "Ġfriendly": 7438, "Ġfixed": 7439, "Item": 7440, "_cont": 7441, "_host": 7442, "igen": 7443, "ĠScotland": 7444, "Ġlanguages": 7445, "Ġsan": 7446, "ircle": 7447, "ĠOx": 7448, "Ġsolar": 7449, "Ġperman": 7450, "Ġminimum": 7451, "ĠCall": 7452, "Ġpython": 7453, "fulness": 7454, "Ġjoint": 7455, "ĠDig": 7456, "Mus": 7457, "Ġpassing": 7458, "Ġ',": 7459, "_params": 7460, "Ġchemical": 7461, "abeth": 7462, "era": 7463, "Ġissued": 7464, "unately": 7465, "cluding": 7466, "ools": 7467, "_field": 7468, "Ġrevenue": 7469, "ĠJackson": 7470, "Ġclearly": 7471, "Ġtruck": 7472, "Ġemployee": 7473, "aval": 7474, "Ġinitially": 7475, "ĠPM": 7476, "anth": 7477, "Ġinterpret": 7478, "ocated": 7479, "(re": 7480, "Ġroof": 7481, "Ġplastic": 7482, "ĠTre": 7483, "Ġdishes": 7484, "_RE": 7485, "Ġfreedom": 7486, "Ġkm": 7487, "Ġcauses": 7488, "Ġdiagn": 7489, "Ġwestern": 7490, "-W": 7491, "jo": 7492, "Ġpoll": 7493, "secut": 7494, "ĠKen": 7495, "aset": 7496, "ĠAri": 7497, "ĠGeorgia": 7498, "inois": 7499, "ĠStation": 7500, "ocket": 7501, "ĠRom": 7502, "ĠThursday": 7503, "raction": 7504, "resents": 7505, "Ġarts": 7506, "ĠWednesday": 7507, "Ġwitness": 7508, "Ġaspects": 7509, "acts": 7510, "Ġparticipate": 7511, "ĠWITHOUT": 7512, "elly": 7513, "ILITY": 7514, "DA": 7515, "Ġstands": 7516, "Ġcandidate": 7517, "ĉdef": 7518, "ĠCivil": 7519, "Ġpurchased": 7520, "Ġcoverage": 7521, "Ġapparent": 7522, "Ġimproving": 7523, "Ġmainly": 7524, "esh": 7525, "Ġexists": 7526, "Ġguest": 7527, "PC": 7528, "ĠReal": 7529, "Ġ\"%": 7530, "Ġfoundation": 7531, "ĠJac": 7532, "Ġinvent": 7533, "Ġexcited": 7534, "rene": 7535, "ublican": 7536, "ĠLatin": 7537, "ĠKn": 7538, "Ġdefend": 7539, "Ġauthority": 7540, "iro": 7541, "Ġthanks": 7542, "Ġhabit": 7543, "Ġsupporting": 7544, "Ġidentified": 7545, "Ġsignificantly": 7546, "Ġwinner": 7547, "iated": 7548, "Ġsoldiers": 7549, "Ġsoil": 7550, "eries": 7551, "Ġprofessionals": 7552, "Ġplanned": 7553, "Ġobvious": 7554, "Ġrid": 7555, "Ġchannels": 7556, "Ġorigin": 7557, "Ġcontemporary": 7558, "ĠIran": 7559, "Ġdogs": 7560, "ĠWeek": 7561, "Ġpossess": 7562, "Ġfeelings": 7563, "Ġ'Ċ": 7564, "Ġusage": 7565, "Ġextension": 7566, "ainer": 7567, "ĠFamily": 7568, ".check": 7569, "Ġreader": 7570, "ĠCro": 7571, "Ġhur": 7572, "onic": 7573, "']['": 7574, "Ġrevealed": 7575, "Ġoppos": 7576, "Ġwww": 7577, "olean": 7578, "enny": 7579, "crete": 7580, "Ġstudied": 7581, "-and": 7582, "Ġhaven": 7583, "Ġgreatest": 7584, "ployment": 7585, "nam": 7586, "Men": 7587, "Ġdesire": 7588, "ĠSong": 7589, "ĠDie": 7590, "Ġsuggestions": 7591, "Ġaccommod": 7592, "Ġreform": 7593, "ĠAPI": 7594, "empty": 7595, "IX": 7596, "},Ċ": 7597, "uuid": 7598, "itate": 7599, "-G": 7600, "current": 7601, "Ġ'\\": 7602, "ĉreturn": 7603, "Ġchop": 7604, "Ġpra": 7605, "estamp": 7606, "ancer": 7607, "Ġresponsibility": 7608, "ĠWild": 7609, "ĠBroad": 7610, "ĠRE": 7611, "Sim": 7612, "rt": 7613, "Ġcouncil": 7614, "stitution": 7615, "Ġultimately": 7616, "antly": 7617, "Ġmath": 7618, "ĠĠĊ": 7619, "_model": 7620, "Early": 7621, "VD": 7622, "merce": 7623, "network": 7624, "ĠSenate": 7625, "Ġprimarily": 7626, "ĠField": 7627, "_error": 7628, "-on": 7629, "Another": 7630, "ĠSports": 7631, "ubs": 7632, "ĠChris": 7633, "Ġbon": 7634, "Ġcovers": 7635, "Ġgenerated": 7636, "\\xc": 7637, "ĠFour": 7638, "irmed": 7639, "Ġattacks": 7640, "exp": 7641, "Ġkeys": 7642, "Ġgrass": 7643, "Ġrough": 7644, "Ġbike": 7645, "acket": 7646, "ĠEastern": 7647, "Ġpositions": 7648, "Ġmodify": 7649, "Ġconvert": 7650, "rich": 7651, "Ġdefeated": 7652, "Ġentirely": 7653, "ador": 7654, "ĠHuman": 7655, "Ġcoding": 7656, "Ġmir": 7657, "ells": 7658, "ĠFood": 7659, "Ġreput": 7660, "ĠGmina": 7661, "stract": 7662, "Ġfly": 7663, "iberal": 7664, ")]Ċ": 7665, "Ġneck": 7666, "Ġnone": 7667, "Ġpurposes": 7668, "Ġturns": 7669, "\\xb": 7670, "ĠColl": 7671, "connect": 7672, "Ġfighting": 7673, "ested": 7674, "ĠAndrew": 7675, "Ġstopped": 7676, "Ġwouldn": 7677, "except": 7678, "Count": 7679, "Ġcrucial": 7680, "ĠStan": 7681, ".value": 7682, "irs": 7683, "ĠFair": 7684, "plete": 7685, "Ġconfidence": 7686, "Ġspiritual": 7687, "ĠPlace": 7688, "ĠColumbia": 7689, "onym": 7690, "Ġtopics": 7691, "Ġoperated": 7692, "ĠFederal": 7693, "'].": 7694, "sv": 7695, "Ġconscious": 7696, "ĠJon": 7697, "Ġwidely": 7698, "ĠTuesday": 7699, "ĠToday": 7700, ".to": 7701, "ints": 7702, "rm": 7703, "Ġsurg": 7704, "posit": 7705, "Ġtemple": 7706, "Ġcoun": 7707, "/L": 7708, "Ġsight": 7709, "Ġcrop": 7710, "Ġscholar": 7711, "_utils": 7712, "rum": 7713, "IF": 7714, "Ġroutine": 7715, "Ġlots": 7716, "ANT": 7717, "rency": 7718, "Ġsuggested": 7719, "His": 7720, "Ġdiscount": 7721, "Ġconversation": 7722, "Yes": 7723, "Info": 7724, "Ġpure": 7725, "\"))Ċ": 7726, "sect": 7727, "Equ": 7728, "ĠIndust": 7729, "Ġchallenging": 7730, "ifies": 7731, "\"The": 7732, "ceived": 7733, "Ġtick": 7734, "https": 7735, "VID": 7736, "Ġengaged": 7737, "_port": 7738, "Dict": 7739, "ĠTheatre": 7740, "phy": 7741, "Ġtea": 7742, "ĠBrook": 7743, "SW": 7744, "angle": 7745, "Ġstyles": 7746, "ĠFar": 7747, "Ġawareness": 7748, "ĠNote": 7749, "Ġsummary": 7750, "Ġprovider": 7751, "rooms": 7752, "endar": 7753, "power": 7754, "Ġtransition": 7755, "Ġcateg": 7756, "GB": 7757, "ĠPC": 7758, "Ġimpos": 7759, "Ġorganized": 7760, "_shape": 7761, "outer": 7762, "eller": 7763, "SA": 7764, "Ġadult": 7765, "iquid": 7766, "Ġresolution": 7767, "Ġyounger": 7768, "aylor": 7769, "ĠHospital": 7770, "Ġguys": 7771, "ibilities": 7772, "Ġclaimed": 7773, "Ġprogramming": 7774, "Åį": 7775, "Size": 7776, "Ġunf": 7777, "/licenses": 7778, "Ġefficiency": 7779, "Ġjustice": 7780, "HER": 7781, "Ġaudio": 7782, "yard": 7783, "gex": 7784, "ĠRam": 7785, "ORT": 7786, "Ġenv": 7787, "stein": 7788, "ĠMajor": 7789, "_response": 7790, "Ġcomedy": 7791, "lan": 7792, "ĠSecurity": 7793, "Ġunless": 7794, "Ġmoments": 7795, "Ġattribute": 7796, "oded": 7797, "ĠHa": 7798, "Ġupdates": 7799, "Oh": 7800, "ĠEconom": 7801, "_IN": 7802, "onto": 7803, "Ġstack": 7804, "var": 7805, "Ġpred": 7806, "Ġcomponent": 7807, "Ġactors": 7808, "Ġtrig": 7809, "ĠReferences": 7810, "umin": 7811, "However": 7812, "ĠAuthor": 7813, "Ġships": 7814, "headers": 7815, "Ġaccurate": 7816, "vin": 7817, "np": 7818, "Ġtwenty": 7819, "Ġentr": 7820, "Ġacquired": 7821, "Ġproud": 7822, "ĠCorporation": 7823, "ĠSpring": 7824, "ĠAud": 7825, ".params": 7826, "-be": 7827, "ternoon": 7828, "Ġflav": 7829, "Ġperforming": 7830, "Ġretire": 7831, "Post": 7832, "_input": 7833, "Premise": 7834, "ĠEdward": 7835, "PA": 7836, "Ġfigures": 7837, "Ġshell": 7838, ".utils": 7839, "Ġhappens": 7840, "Ġ*Ċ": 7841, "Ġseeking": 7842, "Ġgentle": 7843, "ĠOnline": 7844, "ĠWalk": 7845, "ĠAlbert": 7846, "Ġpossibly": 7847, "ĠAvenue": 7848, "Ġfabric": 7849, "Based": 7850, "ĠBern": 7851, "Ġclimb": 7852, "Ġexternal": 7853, "apped": 7854, "Ġplenty": 7855, "Ġhistoric": 7856, "Ġmine": 7857, "Ġsole": 7858, "_function": 7859, "('/": 7860, "Ġdiscussion": 7861, "required": 7862, "Ġunable": 7863, "IST": 7864, "Ġaccounts": 7865, "Ġgarlic": 7866, "CO": 7867, "uls": 7868, "\\xe": 7869, "ĠIllinois": 7870, "ĠBattle": 7871, "Ġsymptoms": 7872, "Ġbear": 7873, "ĠPay": 7874, "ĠChampionships": 7875, "iat": 7876, "Ġtechnique": 7877, "Ġ{\"": 7878, "Ġsculpt": 7879, "ĠAmazon": 7880, "More": 7881, "Ġlosing": 7882, "Ġera": 7883, "ĠBa": 7884, "ĠMedical": 7885, "Ġloop": 7886, "try": 7887, "Ġnumpy": 7888, "oz": 7889, "friend": 7890, "Ġelectronic": 7891, "ĠLast": 7892, "register": 7893, "ĠAsh": 7894, "eler": 7895, "opher": 7896, "store": 7897, "Ġchocolate": 7898, "Read": 7899, "Ġhidden": 7900, "Ġhearing": 7901, "Ġflour": 7902, "UD": 7903, "fg": 7904, "ĠGi": 7905, "ĠThank": 7906, "Ġterror": 7907, "Ġdecide": 7908, "ĠLet's": 7909, "raq": 7910, "she": 7911, "Ġputting": 7912, "Ġcampaigns": 7913, "ĠDE": 7914, "ĠAssembly": 7915, "_al": 7916, "ĠAD": 7917, "Ġexpensive": 7918, "Ġfee": 7919, "ione": 7920, "Ġeastern": 7921, "ĠCorn": 7922, "Ġwelcome": 7923, "Ġlogger": 7924, "Ġoutdoor": 7925, "Ġoccurred": 7926, "Ġnewspaper": 7927, "_table": 7928, "Ġparse": 7929, ".W": 7930, "ificate": 7931, "Response": 7932, "Ġmunicipal": 7933, "_ST": 7934, "Ġsessions": 7935, "assword": 7936, "ĠIT": 7937, "ĠDaniel": 7938, "Ġapps": 7939, "ĠDutch": 7940, "Ġenjoyed": 7941, "angers": 7942, "Ġspeaking": 7943, "ĠAsian": 7944, "Ġrequests": 7945, "ĠAL": 7946, "ĠTri": 7947, "ĠBon": 7948, "Ġcontainer": 7949, "Ġrepresents": 7950, "Ġfeels": 7951, "Ġnarrow": 7952, "Ġrecover": 7953, "Ġexperts": 7954, "ĠSM": 7955, "erves": 7956, "Ġhash": 7957, "ĠBh": 7958, "Ġextensive": 7959, "roke": 7960, "Ġ>=": 7961, "Ã§": 7962, "Ġwon't": 7963, ")):Ċ": 7964, "Ġdesk": 7965, "vals": 7966, "Spec": 7967, "UB": 7968, "ĠJr": 7969, "Ġfasc": 7970, "ĠRose": 7971, "Ġsupposed": 7972, "Ġcomposed": 7973, "plicit": 7974, "ĠSteve": 7975, "Ġcampus": 7976, "ERS": 7977, "future": 7978, "ĠURL": 7979, "Ġtone": 7980, "Ġworksh": 7981, "_default": 7982, "Ġpip": 7983, "Ġicon": 7984, "_mode": 7985, "Ġsetup": 7986, "ĠCas": 7987, "Ġinteger": 7988, "phia": 7989, "Ġtitles": 7990, "Ġlie": 7991, "izabeth": 7992, "ĠThree": 7993, "ras": 7994, "ĠThrough": 7995, "organ": 7996, "ela": 7997, "Ġcycle": 7998, "nap": 7999, "Ġadults": 8000, "never": 8001, "Ġtf": 8002, "Ġalongside": 8003, "Ġbusy": 8004, "(i": 8005, "project": 8006, "ayers": 8007, "ĠAdministr": 8008, "ĠI'll": 8009, ".group": 8010, "Ġocean": 8011, "imize": 8012, "inals": 8013, "ĠVersion": 8014, "Ġeggs": 8015, "aded": 8016, "ĠRome": 8017, "Comp": 8018, "parent": 8019, "Ġrepair": 8020, "Ġassigned": 8021, "Ġacid": 8022, "Ġwindows": 8023, "Just": 8024, "table": 8025, "wa": 8026, "Âłkm": 8027, "aze": 8028, "Ġatmosphere": 8029, "ĠObama": 8030, "eno": 8031, "erg": 8032, "Ġawards": 8033, ".G": 8034, "ĠMic": 8035, "icial": 8036, "Ġrub": 8037, "ourage": 8038, ".'": 8039, "ĠGar": 8040, "Ġwidth": 8041, "Ġmovies": 8042, "/d": 8043, "vard": 8044, "prise": 8045, "Ġthemes": 8046, "Ġrelatively": 8047, "kes": 8048, "his": 8049, "(),Ċ": 8050, "Ġsigns": 8051, "Ġairport": 8052, "lets": 8053, "Ġinnovative": 8054, "ĠString": 8055, "Ġscope": 8056, "Ðµ": 8057, "Ġpup": 8058, "Ġbrings": 8059, "shot": 8060, "model": 8061, "Ġhockey": 8062, "-American": 8063, "ĠSon": 8064, "ĠEst": 8065, "Ġmarked": 8066, "IND": 8067, "ULT": 8068, "(D": 8069, "ĠPen": 8070, "Ġboost": 8071, "Ġparticipants": 8072, "Ġfaster": 8073, "_message": 8074, "Ġnull": 8075, "Ġreco": 8076, "ĠLib": 8077, "Ġjudge": 8078, "ĠWel": 8079, "adelphia": 8080, "Ġoptional": 8081, "Ġnegot": 8082, "Ġwe're": 8083, "Ġsitu": 8084, "Ġbirds": 8085, "ĠCook": 8086, "aya": 8087, "Ġformation": 8088, "TIC": 8089, "Ġdepart": 8090, "ĠWhere": 8091, "Ġteen": 8092, "ĠRailway": 8093, "Ġgained": 8094, "ĠProvince": 8095, "_context": 8096, "Ã±": 8097, "Med": 8098, "Ġrice": 8099, "Why": 8100, "Ġdivided": 8101, "ĠLab": 8102, "athan": 8103, "_and": 8104, "Ġpromoting": 8105, "ĠRa": 8106, "ĠBridge": 8107, "ĠWrit": 8108, "tocol": 8109, "Ġcloser": 8110, "ABLE": 8111, "Ġpod": 8112, ".\")Ċ": 8113, "then": 8114, "ĠJustice": 8115, "REE": 8116, "Ġvast": 8117, "Ġposted": 8118, "Index": 8119, "Ġbuff": 8120, "Ġwebsites": 8121, "allow": 8122, "Ġvariables": 8123, "ima": 8124, "iece": 8125, "AGE": 8126, "ĠHun": 8127, "'''Ċ": 8128, "Ġspl": 8129, "Ġdates": 8130, "plications": 8131, "Ġdelay": 8132, "Ġnoise": 8133, "Ġarrang": 8134, "Ġoverl": 8135, "Ġmarg": 8136, "Ġlisting": 8137, "ĠKeep": 8138, "Ġhat": 8139, "Ġsuitable": 8140, "Ġexciting": 8141, "INE": 8142, "Ġhonest": 8143, "Ġrural": 8144, "zone": 8145, "Ġsquad": 8146, "Student": 8147, "Ġpersonnel": 8148, "CD": 8149, "Ġfamiliar": 8150, "cred": 8151, "Ġabsolute": 8152, "Ġbool": 8153, "riate": 8154, "ĠBefore": 8155, "ĠEnergy": 8156, "Ġcache": 8157, "_check": 8158, "Ġgrown": 8159, "ĠSanta": 8160, "Ġtomat": 8161, "Ġlimitations": 8162, "Ġcopyright": 8163, "Ġphilosoph": 8164, "Ġbringing": 8165, "ABILITY": 8166, "Ġtroops": 8167, "Ġcontribute": 8168, "\"):Ċ": 8169, "ean": 8170, "help": 8171, "Ġisol": 8172, "Ġmac": 8173, "Ġcleaning": 8174, "teger": 8175, "VE": 8176, "Ġreceiving": 8177, "ĠHy": 8178, "ĠWars": 8179, "Ġabandon": 8180, "Ġparameter": 8181, "ĠPolice": 8182, "enter": 8183, "Ġdifferences": 8184, "ĠMedic": 8185, ")\"Ċ": 8186, "_ext": 8187, "Ġrelative": 8188, "Ġviolence": 8189, "Event": 8190, "Ġgranted": 8191, "ĠVe": 8192, "Ġconsumer": 8193, "Ġseed": 8194, "inson": 8195, "Ġasking": 8196, "writer": 8197, "icted": 8198, "asts": 8199, "Ġholiday": 8200, "Ġobtained": 8201, "ĠVill": 8202, "_pl": 8203, "Ġapproved": 8204, "ector": 8205, "Ġinner": 8206, "ĠPortug": 8207, "Ġdestination": 8208, "Ġjuice": 8209, "Ġfitness": 8210, "ĠCreek": 8211, "oles": 8212, "Ġlambda": 8213, "Ġpanel": 8214, "Ġplate": 8215, "Ġheaders": 8216, "Ġlake": 8217, "usr": 8218, "Work": 8219, "Ġblank": 8220, "ĠDespite": 8221, "Ġbuying": 8222, "ponents": 8223, "Ġmanufacturing": 8224, "Ġvul": 8225, "olec": 8226, "ĠInstead": 8227, ".shape": 8228, "rate": 8229, "(u": 8230, "Ġwithd": 8231, "IE": 8232, "fall": 8233, "ĠLive": 8234, "element": 8235, "Ġpp": 8236, "oder": 8237, "Ġaccessible": 8238, "Ġ),Ċ": 8239, "Ġpersons": 8240, "ĠReport": 8241, "Ġbrands": 8242, "pool": 8243, "Ġworldwide": 8244, "olly": 8245, "_ip": 8246, "aine": 8247, "vo": 8248, "Ġchat": 8249, "URL": 8250, "Ġreligion": 8251, "Ġinfl": 8252, "Ġloyal": 8253, "Ġregistered": 8254, "Pop": 8255, "uz": 8256, "Ġtests": 8257, "iger": 8258, "Part": 8259, "Ġshirt": 8260, "Ġcommunicate": 8261, "itzer": 8262, "umps": 8263, "ski": 8264, "Ġscheme": 8265, "Dis": 8266, "Ġindeed": 8267, "Ġ\"\\": 8268, "ĠCommon": 8269, "peror": 8270, "Ġfavour": 8271, "Ġlux": 8272, "amework": 8273, "ĠForest": 8274, "itled": 8275, "Ġsolo": 8276, "Ġdangerous": 8277, "faces": 8278, "Ġaxis": 8279, "Ġperspective": 8280, "ĠPAR": 8281, "Ġdebt": 8282, "ĠGre": 8283, "ingle": 8284, "Ġsecondary": 8285, "ĠUk": 8286, "ĠWis": 8287, "Ġestimated": 8288, "Ġbodies": 8289, "EXT": 8290, "Ġpolitics": 8291, "Ġintelligence": 8292, "Ġhumans": 8293, "etadata": 8294, "!\"Ċ": 8295, "ĠSyd": 8296, "_instance": 8297, "ãģ": 8298, "ashed": 8299, "ĠRights": 8300, "Ġspoke": 8301, "Ġfifth": 8302, "names": 8303, "ĠNov": 8304, "Ġoverw": 8305, "Ġdescribe": 8306, "eral": 8307, "Ġsaved": 8308, "abil": 8309, "Ġdelete": 8310, "Ġclothing": 8311, "Ġrecognition": 8312, "Ġapplicable": 8313, "Ġham": 8314, "Ġdecades": 8315, "Ġcompat": 8316, "Ġcoc": 8317, "Ġdiverse": 8318, "ned": 8319, "rovers": 8320, "iors": 8321, "ĠTrust": 8322, "ĠEs": 8323, "Ġdegrees": 8324, "elines": 8325, "Ġwalked": 8326, "Ġdelivered": 8327, "Ġoven": 8328, "Ġpars": 8329, "ĠOlympic": 8330, "okes": 8331, "ĠCult": 8332, "Ġvess": 8333, "_token": 8334, "edge": 8335, "Ġconsumers": 8336, "CP": 8337, "YPE": 8338, "Ġadds": 8339, "Ġafternoon": 8340, "ĠIraq": 8341, "bell": 8342, "Ġcompliance": 8343, "Ġtuple": 8344, ".error": 8345, "oking": 8346, "ĠCur": 8347, "Ġinvestigation": 8348, "Ġclothes": 8349, "ĠDar": 8350, "ĠScottish": 8351, "Ġspin": 8352, ".core": 8353, "Ġlabels": 8354, "Ġreverse": 8355, "Ġdropped": 8356, "ĠTurn": 8357, "axis": 8358, "Ġclosely": 8359, "acle": 8360, "ĠSign": 8361, "ĠLady": 8362, "ĠBudd": 8363, "Ġconsistent": 8364, "]))Ċ": 8365, "olis": 8366, "iamond": 8367, "acter": 8368, "ĠHave": 8369, "I'm": 8370, "aints": 8371, "Many": 8372, "Ġrestaurants": 8373, "Ne": 8374, "Ġturning": 8375, "ummy": 8376, "iot": 8377, "Ġforth": 8378, "anna": 8379, "ĠI'd": 8380, "encode": 8381, "Will": 8382, "MP": 8383, "_sh": 8384, "certain": 8385, "allel": 8386, "|-": 8387, ".Char": 8388, "Ġsentences": 8389, "Ġexcess": 8390, "_status": 8391, "Ġstir": 8392, "imer": 8393, "Ġachieved": 8394, "CR": 8395, "ĠSecretary": 8396, "Ġbird": 8397, "Fl": 8398, "Ġresistance": 8399, "(w": 8400, "anges": 8401, "derr": 8402, "Ġmusicians": 8403, "Ġknowing": 8404, "Act": 8405, "?âĢĿ": 8406, "thur": 8407, "ĠProfessor": 8408, "ĠAS": 8409, "Ġcausing": 8410, "ĠCost": 8411, "ĠPubl": 8412, ".fail": 8413, "Ġvisited": 8414, "Well": 8415, "last": 8416, "Ġautomatically": 8417, "abet": 8418, "ĠDou": 8419, "Since": 8420, "ilation": 8421, "Ġtradition": 8422, "(response": 8423, "Ġadvoc": 8424, "bec": 8425, "rives": 8426, "ACK": 8427, "ĠSpace": 8428, "ulating": 8429, "Ġcollected": 8430, "ĠHind": 8431, "_client": 8432, "Ġcapable": 8433, "ĠCEO": 8434, "ĠHand": 8435, "ji": 8436, "yal": 8437, "queue": 8438, "yo": 8439, "Ġnotable": 8440, "-off": 8441, "Ġcou": 8442, "Ġwasn": 8443, ".H": 8444, "Ġtor": 8445, "Ġinsert": 8446, "miss": 8447, "ĠLy": 8448, ")),Ċ": 8449, "(key": 8450, "Ġcompetitive": 8451, "sum": 8452, ".sub": 8453, "pir": 8454, "Ġauthorities": 8455, "ĠOxford": 8456, "(result": 8457, "(g": 8458, "Ġemergency": 8459, "Ġmagic": 8460, "ĠRepublican": 8461, "Ġstruggle": 8462, "Ġcharges": 8463, "ailability": 8464, "Ġcrisis": 8465, "Ġlaugh": 8466, "Ġthin": 8467, "Ġindustries": 8468, "=%": 8469, "ĠAdv": 8470, "ride": 8471, "ĠSus": 8472, "_j": 8473, "ĠPot": 8474, "ĠVen": 8475, "Ġlandscape": 8476, "ĠHard": 8477, "OG": 8478, "Ġblocks": 8479, "cks": 8480, "alo": 8481, "Ġexercises": 8482, ".V": 8483, "Pre": 8484, "ĠPRO": 8485, "ĠSupport": 8486, "Ġphr": 8487, "Ġalco": 8488, "appy": 8489, "omet": 8490, "osition": 8491, "aska": 8492, "ĠJean": 8493, "Ġstrange": 8494, "cknow": 8495, "Ġprotest": 8496, "ais": 8497, "Ġfoods": 8498, "Ġtrail": 8499, "Down": 8500, "hus": 8501, "Ġepisodes": 8502, "Ġcabin": 8503, "ennes": 8504, "Prop": 8505, "chestra": 8506, "Ġfont": 8507, "ĠSher": 8508, "-K": 8509, ".In": 8510, "utf": 8511, "Ġresc": 8512, "nce": 8513, "Ġkne": 8514, "Ġauto": 8515, "Ġstatistics": 8516, "iary": 8517, "Ġbinary": 8518, "Ġadmin": 8519, "Ġ'-": 8520, "=dict": 8521, "Ġtemp": 8522, "ĠPoint": 8523, "AND": 8524, "pton": 8525, "Ġpermission": 8526, "Ġcarefully": 8527, "Ġappreciate": 8528, "Ġfulf": 8529, "Ġintern": 8530, "long": 8531, "description": 8532, "oly": 8533, "Ġyards": 8534, "tics": 8535, "Ġboot": 8536, "ami": 8537, "Ġped": 8538, "ĠBad": 8539, "ĠCreat": 8540, "ĠSydney": 8541, "Ġprefix": 8542, "ĠSupreme": 8543, "antry": 8544, "ĠBand": 8545, ".comp": 8546, "ĠConnect": 8547, "conf": 8548, ".module": 8549, "(ch": 8550, "Ġenemy": 8551, "Ġrelief": 8552, "Ġreturning": 8553, "Ġtough": 8554, "Ġorganic": 8555, "Ġappearances": 8556, "Ġlists": 8557, "Ġexpansion": 8558, "Last": 8559, "Ġcycl": 8560, "_att": 8561, "acks": 8562, "gage": 8563, "Ġdollars": 8564, "HA": 8565, "Ġconnections": 8566, "ĠChildren": 8567, "Ġrisks": 8568, "ĠKorea": 8569, "National": 8570, "Ġacting": 8571, "Ġnewly": 8572, "Equals": 8573, "_array": 8574, "sen": 8575, "Ġrevolution": 8576, "Ġfold": 8577, "Ġsituations": 8578, "Ġgeometry": 8579, "Def": 8580, "Ġskill": 8581, "Ġtreated": 8582, "ATA": 8583, "address": 8584, "don": 8585, "Ġexplanation": 8586, "Ġrul": 8587, "âĢĿ,": 8588, "ĠRod": 8589, "Ġveter": 8590, "Ġconstructed": 8591, "issue": 8592, "unct": 8593, "Ġcommitment": 8594, ".url": 8595, "Ġorange": 8596, "Ġexistence": 8597, "Ġsubstant": 8598, "Ġcolour": 8599, "Ġreduction": 8600, "Ġshock": 8601, "Ġattributes": 8602, "Ġovercome": 8603, "Ġaffordable": 8604, "ĠSS": 8605, "ĠRog": 8606, "_(": 8607, "Ġmedicine": 8608, "ilton": 8609, "Ġsick": 8610, "een": 8611, "-quality": 8612, "asted": 8613, "first": 8614, "(msg": 8615, "Ġmatrix": 8616, "_run": 8617, "Ġbroke": 8618, "Ġtrouble": 8619, "ĠLew": 8620, "Ġrein": 8621, "Ġdomestic": 8622, "operation": 8623, "UG": 8624, "ĠConf": 8625, "ĠCode": 8626, "ĠMir": 8627, "Ġsuggests": 8628, "Ġcompare": 8629, "Ġcriminal": 8630, "tings": 8631, "Ġmassive": 8632, "Ġlaid": 8633, "_start": 8634, "Ġacts": 8635, "Ġfootballer": 8636, "Ġ#Ċ": 8637, "ĠFox": 8638, "ivalent": 8639, "Ġadopted": 8640, "vas": 8641, "ĠKong": 8642, "LC": 8643, ".CharField": 8644, "_result": 8645, "-related": 8646, "Ġracing": 8647, "ĠMountain": 8648, "ĠTaylor": 8649, "ĠPhilipp": 8650, "ecutive": 8651, "regon": 8652, "=(": 8653, "Ġrecovery": 8654, "_of": 8655, "Ġhe's": 8656, "Ġrepeated": 8657, "owa": 8658, "Ġvert": 8659, "Ġserial": 8660, "ĠProduct": 8661, "edu": 8662, "Ġgate": 8663, "Ġrecon": 8664, "ĠBall": 8665, "full": 8666, "Ġlargely": 8667, "Ġfaculty": 8668, "lee": 8669, "ĠVictoria": 8670, "Ġentertainment": 8671, "Ġcircumstances": 8672, "Ġdictionary": 8673, "Ġdram": 8674, "ervative": 8675, "Ġreq": 8676, "Ġnetworks": 8677, "uma": 8678, "Ġrepresenting": 8679, "AF": 8680, "Ġinsights": 8681, "********": 8682, "ĠDemocratic": 8683, "Every": 8684, "Ġgrade": 8685, "Ġapi": 8686, "ĠElizabeth": 8687, "Ġprincipal": 8688, "Ġapple": 8689, "ĠKar": 8690, "Ġincident": 8691, "IZ": 8692, "Ã¢": 8693, "Ġtab": 8694, "ĠGovernor": 8695, "Ġnecessarily": 8696, "mble": 8697, ".en": 8698, "ĠWilson": 8699, "html": 8700, "ĠStudies": 8701, "Ġsuffered": 8702, "Ġfacing": 8703, "Ġbeer": 8704, "cale": 8705, "Ġalive": 8706, "ishment": 8707, "ĠCommunic": 8708, "ĠMu": 8709, "reprene": 8710, "Ġsin": 8711, "Ġpoly": 8712, "Ġwheel": 8713, ")[": 8714, "appoint": 8715, "Ġlit": 8716, "ĠFind": 8717, "ĠOs": 8718, ".as": 8719, "Ġcaptain": 8720, "Ġsoup": 8721, "_api": 8722, "ĠLi": 8723, "omain": 8724, "ĠAnton": 8725, "Ġsettlement": 8726, "Ġmigr": 8727, "Ġcrack": 8728, "Ġresearchers": 8729, "_.": 8730, "iÄĩ": 8731, "Ġexit": 8732, "ĠBell": 8733, "Ġworry": 8734, "Ġlady": 8735, "aired": 8736, "ĠMicrosoft": 8737, "Ġinteractive": 8738, "ĠArm": 8739, "war": 8740, "ĠPhiladelphia": 8741, "Ġalter": 8742, "Ġcoal": 8743, "Ġchap": 8744, "Ġfake": 8745, "Care": 8746, "Ġzero": 8747, "Ġmeditation": 8748, "ulator": 8749, ".âĢĻ": 8750, ".text": 8751, "Ġlights": 8752, "Ġgovern": 8753, "Ġduty": 8754, "Ġbaking": 8755, "Start": 8756, "ĠMill": 8757, "Ġclock": 8758, "IGHT": 8759, "ĠPy": 8760, "Ġauthors": 8761, "lyn": 8762, "Ġseeds": 8763, ".type": 8764, "ĠGuard": 8765, "Ġrealize": 8766, "akh": 8767, "Ġconstantly": 8768, "Ġstretch": 8769, "Ġ''Ċ": 8770, "ĠWat": 8771, "ĠCountry": 8772, "zona": 8773, "fortunately": 8774, "Ġsad": 8775, "-J": 8776, "Ġtrained": 8777, "Ġcomposition": 8778, "Ġscan": 8779, "ĠColorado": 8780, "tk": 8781, "Ġexplained": 8782, "Ġcorporate": 8783, "HL": 8784, "Ġintroduction": 8785, "Ġobserved": 8786, "Ġtexture": 8787, "raid": 8788, "ĠBru": 8789, "Ġourselves": 8790, "Ġemployed": 8791, "achine": 8792, ".Get": 8793, "ĠRest": 8794, "Ġimpossible": 8795, "node": 8796, "Ġok": 8797, "-level": 8798, "ependent": 8799, "Ġglo": 8800, "Box": 8801, "Ġdeclared": 8802, "El": 8803, "iking": 8804, "ĠRoute": 8805, "Ġinstallation": 8806, "Ġphotograph": 8807, "atabase": 8808, "Ġpiano": 8809, "erving": 8810, "ĠGL": 8811, "oli": 8812, "']:Ċ": 8813, "Ġlegs": 8814, "_values": 8815, "Ġtut": 8816, "ĠOS": 8817, "Ġexperim": 8818, "_or": 8819, "Ġcandidates": 8820, "Ġwave": 8821, "Ġdestroyed": 8822, "ĠBang": 8823, "ĠTherefore": 8824, "Ġcarrying": 8825, "Ġliquid": 8826, "ãĥ": 8827, "ĠMix": 8828, "]['": 8829, "aki": 8830, "Ġweapons": 8831, "isa": 8832, "Attribute": 8833, "Ġshooting": 8834, "away": 8835, "ĠInvest": 8836, "Ġlistening": 8837, "Sw": 8838, "insert": 8839, "ĠExt": 8840, "rell": 8841, "Ġcopies": 8842, "ĠAnsible": 8843, "-N": 8844, "Ġattached": 8845, ".python": 8846, "Ġcharged": 8847, "Ġacknow": 8848, "ICEN": 8849, "Ġmatters": 8850, "Ġteach": 8851, "ellect": 8852, "Ġminister": 8853, "ĠThus": 8854, "Ġshipping": 8855, "Ġtrends": 8856, "Ġpoetry": 8857, "Oper": 8858, "Most": 8859, "Ġagencies": 8860, "block": 8861, "Ġinfluenced": 8862, "Ġfiction": 8863, "_en": 8864, "ĠMarg": 8865, "rows": 8866, "bsite": 8867, "aret": 8868, "Ġoperate": 8869, "Ġpersonalized": 8870, "Ġimprovement": 8871, "Ġprominent": 8872, "_address": 8873, "Ð¸": 8874, "ĠCaptain": 8875, "Ġdrawn": 8876, "Ġsegment": 8877, "Ġusual": 8878, "Ġexpanded": 8879, "Ġprotected": 8880, "HS": 8881, "_R": 8882, "oves": 8883, "ĠBerlin": 8884, "Ġstrings": 8885, "Ġreplacement": 8886, "ĠUr": 8887, "Ġtight": 8888, "ĠOnt": 8889, "Ġexpertise": 8890, "Vill": 8891, "ĠConsider": 8892, "Ġtill": 8893, "Ġvirt": 8894, "Handler": 8895, "_ref": 8896, "pu": 8897, "Ġtur": 8898, "Ġconfirmed": 8899, "iki": 8900, "Ġabsolutely": 8901, "Ġrespectively": 8902, "_files": 8903, "Ip": 8904, "Ġabilities": 8905, ".arg": 8906, "worth": 8907, "(?": 8908, "ĠGlobal": 8909, "Ġmanaging": 8910, "Ġconcerned": 8911, "orted": 8912, "Ġoccas": 8913, "_mod": 8914, "Ġsemi": 8915, "ĠON": 8916, "Ġheads": 8917, "Ġannounce": 8918, "Ġblow": 8919, "Ent": 8920, "ĠImport": 8921, "olt": 8922, "_inter": 8923, "Ġlunch": 8924, "Ġlinked": 8925, "oln": 8926, "Ac": 8927, "ĠHoly": 8928, "ĠTam": 8929, "_column": 8930, "Ġvital": 8931, "ederation": 8932, "-v": 8933, ".last": 8934, "(test": 8935, "ĠPage": 8936, "Ġformal": 8937, "Ġsubt": 8938, "Ġjew": 8939, "ĠAbs": 8940, "Ġrepro": 8941, "Ġconfirm": 8942, "(-": 8943, "plex": 8944, "ILE": 8945, "Ġcompr": 8946, "ublin": 8947, "Ġdocumentation": 8948, "Ġconvey": 8949, "\\xa": 8950, "Ġ<=": 8951, "TIES": 8952, "_format": 8953, "bourne": 8954, "ĠClick": 8955, "ĠAlexander": 8956, ")/": 8957, "Ġfru": 8958, "Ġscenes": 8959, "Ġstored": 8960, "ĠArea": 8961, "[QUESTION": 8962, "urers": 8963, "Ġbreakfast": 8964, "arse": 8965, "ĠToronto": 8966, "ayout": 8967, "Ġchapter": 8968, "Ġye": 8969, "ĠBBC": 8970, "ĠMA": 8971, "Tag": 8972, "Ġfactory": 8973, "ĠCommand": 8974, "ĠSav": 8975, "who": 8976, "(np": 8977, "zing": 8978, "Ġoffset": 8979, "Ġutf": 8980, "Ġheavily": 8981, "ĠHarry": 8982, "iy": 8983, "Ġoblig": 8984, "âĢ¦Ċ": 8985, "onia": 8986, "aws": 8987, "ogen": 8988, "Ġstim": 8989, "uto": 8990, "Fe": 8991, "Ġbattery": 8992, "Ġdefeat": 8993, "Art": 8994, "(B": 8995, "ĠPolish": 8996, "Ġhosted": 8997, "ĠOrig": 8998, "Ġattempts": 8999, "Ġdeaths": 9000, "\\xd": 9001, "ĠTry": 9002, "inton": 9003, "ĠFC": 9004, "======": 9005, "Ġguidance": 9006, "ĠAirport": 9007, "ĠRon": 9008, "/c": 9009, "ĠLink": 9010, "Aust": 9011, "Ġabuse": 9012, "Ġobst": 9013, "Ġappeal": 9014, "Ġcutting": 9015, "Ġemployment": 9016, "Ġdepression": 9017, "Ġopposite": 9018, "Ġpapers": 9019, "Gu": 9020, "ruption": 9021, "oked": 9022, "Ġdrivers": 9023, "Ġpregn": 9024, "ĠHotel": 9025, "Ġprovince": 9026, "ĠMinnes": 9027, "isition": 9028, "ĠEnvironment": 9029, "Ġlad": 9030, "ĠJane": 9031, "Ġchampion": 9032, "uper": 9033, "Ġsufficient": 9034, "rog": 9035, ".pop": 9036, "Ġresulted": 9037, "errors": 9038, "WAR": 9039, "Ġsharp": 9040, "Ġtimeout": 9041, "(st": 9042, "ĠViet": 9043, "ĠIslands": 9044, "atitude": 9045, "ardens": 9046, "Ġflu": 9047, ".assertEquals": 9048, "ifest": 9049, "_th": 9050, "ĠPakistan": 9051, "ĠTrump": 9052, "-class": 9053, "Ġcollections": 9054, "Ġdrugs": 9055, "ifer": 9056, "Ġnoticed": 9057, "ĠLin": 9058, "Ġfees": 9059, "Ġending": 9060, "verb": 9061, "Ġmen's": 9062, "Ġcasino": 9063, "ĠManager": 9064, "Ġabsor": 9065, "ĠMaryland": 9066, "Ġcontrovers": 9067, "emony": 9068, "else": 9069, "ernel": 9070, "Ġinches": 9071, "Ġcelebrate": 9072, "Ġsubsequently": 9073, "Ġshares": 9074, "Ġtelling": 9075, "Ġolive": 9076, "Ġwet": 9077, "ĠGolden": 9078, "ĠHung": 9079, "Ġtack": 9080, "ĠHom": 9081, "Ġcontributed": 9082, "Ġfacts": 9083, "Ġinformed": 9084, "empl": 9085, "Ġpoliticians": 9086, "Lo": 9087, "Ġtheater": 9088, "ĠUsing": 9089, "Ġchopped": 9090, "Â®": 9091, "asant": 9092, "Image": 9093, "(ex": 9094, "(A": 9095, "Ġreputation": 9096, "(url": 9097, "Ġvulner": 9098, "ICENSE": 9099, "Ġpicked": 9100, "Element": 9101, "Ġtheatre": 9102, "Ġmand": 9103, "Ġbomb": 9104, "ĠKim": 9105, "ĠSat": 9106, "ĠFurther": 9107, "ĠRen": 9108, "0x0": 9109, "Ġadventure": 9110, "Ġfinance": 9111, "Ġtalent": 9112, "Port": 9113, "Ġcensus": 9114, "rior": 9115, "Ġsurprise": 9116, "INT": 9117, "chema": 9118, "Message": 9119, "gi": 9120, "Ġinstruct": 9121, "ĠPlaces": 9122, "orne": 9123, "Ġexpressed": 9124, "ĠMaybe": 9125, "Ġlighting": 9126, "ĠMinnesota": 9127, "Ġscheduled": 9128, "asters": 9129, "Ġinspiration": 9130, "also": 9131, "ĠDam": 9132, "Br": 9133, "Ġpoet": 9134, "Ġillness": 9135, "Ġcaptured": 9136, "Ġneut": 9137, "Line": 9138, ".parse": 9139, "offset": 9140, "engers": 9141, "Ġvisiting": 9142, "rame": 9143, "Ġdrawing": 9144, "ĠAbout": 9145, "Ġglad": 9146, "ĠDuke": 9147, "Ġfurniture": 9148, "equ": 9149, "ĠHolly": 9150, "Ġreject": 9151, "Ġprinciples": 9152, "build": 9153, "Ġpin": 9154, "di": 9155, "ĠAT": 9156, "ONF": 9157, "Ġsail": 9158, "Ġthorough": 9159, "Ġbanks": 9160, "jan": 9161, "Ġhyp": 9162, "ĠLabor": 9163, "Ġreward": 9164, "aping": 9165, "Ġriding": 9166, "ĠPrime": 9167, "ipping": 9168, "Ġvo": 9169, "ĠLow": 9170, "Ġreliable": 9171, "Ã¡n": 9172, "Ġmarker": 9173, "Ġmerch": 9174, "ori": 9175, "?âĢĿĊ": 9176, "Ġsevere": 9177, "Ġcombat": 9178, "ĠLook": 9179, "Ġmountains": 9180, "Ġdefinition": 9181, "ĠSa": 9182, "Films": 9183, "patch": 9184, "asty": 9185, "Ġnuclear": 9186, "ĠWord": 9187, "Ġhandling": 9188, "inator": 9189, "Ġinterior": 9190, "Ġhill": 9191, "ĠWhich": 9192, ".Q": 9193, "ĠWinter": 9194, "ĠArgent": 9195, "Ġparking": 9196, "\").": 9197, "ĠBrother": 9198, "Ġtypical": 9199, "Ġsought": 9200, "quarters": 9201, "ĠLET": 9202, "Ġbatch": 9203, "Ġhits": 9204, "stery": 9205, "_view": 9206, "Ġpand": 9207, "oted": 9208, "ĠFinally": 9209, ".trans": 9210, "range": 9211, "_not": 9212, "ĠInn": 9213, "Ġwins": 9214, "ĠCy": 9215, "gon": 9216, "imary": 9217, "Ġmeetings": 9218, "label": 9219, "ĠOntario": 9220, "/Ċ": 9221, "Ġsections": 9222, "forcement": 9223, "ĠOregon": 9224, "Ġreserved": 9225, "ront": 9226, "-a": 9227, "anny": 9228, "=d": 9229, "Ġsupplies": 9230, "Ġreasoning": 9231, "ĠRepresent": 9232, "isms": 9233, "Ġlifestyle": 9234, "Ġexport": 9235, "ĠSP": 9236, "Ġmal": 9237, "ĠLater": 9238, "Ġfishing": 9239, "Ġexclusive": 9240, "ĠStock": 9241, "andy": 9242, "Ġfrequency": 9243, "(args": 9244, "stood": 9245, "cat": 9246, "Ĥ¬": 9247, "params": 9248, "-language": 9249, "Ġswimming": 9250, ".time": 9251, "Ġmissed": 9252, "zech": 9253, "Ġmovements": 9254, "Ġsorted": 9255, "ighth": 9256, "Date": 9257, "Ġmood": 9258, "ieties": 9259, "Ġtracking": 9260, ":\\": 9261, "Ġpreferences": 9262, "ĠAk": 9263, "owned": 9264, "Ġvisible": 9265, "Ġalgorithm": 9266, "ĠEX": 9267, "ĠPerform": 9268, "Ġnic": 9269, "Ġproviders": 9270, "ĠSO": 9271, "ĠLtd": 9272, "Ġadj": 9273, "Ġfacil": 9274, "Ġdistingu": 9275, "Ġevil": 9276, "Ġincreasingly": 9277, "boy": 9278, "mann": 9279, "Ġdisappe": 9280, "Ġfo": 9281, "vely": 9282, "Ġdeeper": 9283, "Ġshoes": 9284, "Ġpermanent": 9285, "ĠAh": 9286, "upl": 9287, "Ġ<<": 9288, "Ġreaching": 9289, "Ġhundreds": 9290, "bel": 9291, "Ġdoors": 9292, "EE": 9293, "Ġpreparation": 9294, "ateful": 9295, "Ġongoing": 9296, "vy": 9297, "split": 9298, "WS": 9299, "ĠAnth": 9300, "ĠPract": 9301, "ĠRevolution": 9302, "ĠTy": 9303, "ĠView": 9304, "ĠNick": 9305, "ingly": 9306, "Ġvibr": 9307, "Ġwarranty": 9308, "ĠTro": 9309, "Ġenthus": 9310, "Ġsevent": 9311, "holder": 9312, "ĠWARRANTIES": 9313, "ĠUt": 9314, "Ġclassical": 9315, "Phone": 9316, "ĠLind": 9317, "Ġpresentation": 9318, "wall": 9319, "Ġterritory": 9320, "Ġelections": 9321, "izza": 9322, "ĠHay": 9323, "orry": 9324, "Ġtrading": 9325, "Ġtransferred": 9326, "Dr": 9327, "Ġru": 9328, "Ġignore": 9329, "Ġ'__": 9330, "Ġframework": 9331, "Run": 9332, "ĠProm": 9333, "Ġsizes": 9334, "Ġcenturies": 9335, "ĠChair": 9336, "role": 9337, ".items": 9338, "ĠBuilding": 9339, "Rep": 9340, "static": 9341, "ĠBible": 9342, "ĠTony": 9343, "Ġsurgery": 9344, "uties": 9345, "_update": 9346, "Ġsheet": 9347, "present": 9348, "ĠHong": 9349, "Ġstronger": 9350, "swers": 9351, ".y": 9352, "Although": 9353, "/bin": 9354, "Cons": 9355, "evin": 9356, "Ġ'''": 9357, "_options": 9358, "ĠInit": 9359, "_types": 9360, "structor": 9361, "Ġplain": 9362, ".*": 9363, "ĠDun": 9364, "ĠMaria": 9365, "ĠStephen": 9366, "aved": 9367, "Ġcontained": 9368, "Ġmagn": 9369, "Ġpatch": 9370, "Ġofficially": 9371, "alion": 9372, "Ġoutcomes": 9373, "BO": 9374, "Ġextreme": 9375, "Ġanywhere": 9376, "atrix": 9377, "Ġfunc": 9378, "letter": 9379, "ĠFund": 9380, "Ġoccurs": 9381, "ĠDiv": 9382, "Number": 9383, ".context": 9384, "irectory": 9385, "ĠLETTER": 9386, "Ġphen": 9387, "Ġflash": 9388, "esome": 9389, "Ġshowcase": 9390, "ĠRaj": 9391, "Ġcalm": 9392, "Ġrefused": 9393, "_man": 9394, "ulous": 9395, "arks": 9396, "alm": 9397, "Ġpromotion": 9398, "Ġdiseases": 9399, "Ġperfectly": 9400, "`.Ċ": 9401, "umes": 9402, "ouri": 9403, "erto": 9404, "Ġincorporate": 9405, "ĠControl": 9406, "Mr": 9407, "cm": 9408, "aron": 9409, "uint": 9410, "Ġseats": 9411, "\\nThe": 9412, "Ġpercentage": 9413, "Ġcastle": 9414, "ERR": 9415, "orse": 9416, "roller": 9417, "tag": 9418, "Ġupload": 9419, "wich": 9420, "Ġoperator": 9421, "Ġxml": 9422, "Ġtact": 9423, ".save": 9424, "ĠMarc": 9425, "ĠPers": 9426, "ressed": 9427, "ĠWhether": 9428, "Ġproducing": 9429, "Ġsignificance": 9430, "Track": 9431, "Ġprev": 9432, "berry": 9433, "Next": 9434, "Ġinnovation": 9435, "Ġstrike": 9436, "DB": 9437, "ĠSant": 9438, "Å¡": 9439, "Ġmaintaining": 9440, "Ġtags": 9441, "ĠNations": 9442, "Ġpublication": 9443, "erts": 9444, "\\nM": 9445, "Ġtrace": 9446, "ĠDavis": 9447, "pson": 9448, "bro": 9449, "ĠMexican": 9450, "Ġenroll": 9451, "bre": 9452, "ĠNumber": 9453, "orses": 9454, "Ġpaying": 9455, "entials": 9456, "FAULT": 9457, "Ġsatisfaction": 9458, "ĠModel": 9459, "leted": 9460, "Ġoverwhel": 9461, "Ġmonitoring": 9462, "Ġgraduated": 9463, "(S": 9464, "Ġsomewhat": 9465, "Ġtou": 9466, "Ġimpressive": 9467, "Ġentity": 9468, "Ġgetattr": 9469, "oker": 9470, "reece": 9471, "je": 9472, "Ġmachines": 9473, "Client": 9474, "utter": 9475, "Ġast": 9476, "incess": 9477, "Ġfounder": 9478, "Rob": 9479, "ĠBrad": 9480, "has": 9481, "TA": 9482, "Ġconsidering": 9483, "Ġ|Ċ": 9484, "Ġsuddenly": 9485, "Ġsamples": 9486, "duce": 9487, "Ġbare": 9488, "Ġuniform": 9489, "Ġpersonality": 9490, "Ġbench": 9491, "Ġ:Ċ": 9492, "ouston": 9493, "Ġ'--": 9494, "ĠFord": 9495, "Ġpleasure": 9496, "itical": 9497, "Ġretirement": 9498, "_create": 9499, "Ġprofit": 9500, "lov": 9501, "Ġclinical": 9502, "Then": 9503, "Ġthousand": 9504, "width": 9505, "perial": 9506, "/g": 9507, "Ġ-*-": 9508, "Ġconvent": 9509, "ĠArizona": 9510, "ĠEnt": 9511, "consin": 9512, "space": 9513, "Ġclar": 9514, "ĠRos": 9515, "Ġpasses": 9516, "Ġadap": 9517, "Ġsimpl": 9518, "Ġcolumns": 9519, "Hel": 9520, ")\"": 9521, "Ġgif": 9522, "Ext": 9523, "ROM": 9524, "Ġsinging": 9525, "Ġmanual": 9526, "âĢĿ.": 9527, "Ġmemories": 9528, "Brit": 9529, "ATH": 9530, "Ġsuperv": 9531, "ambig": 9532, "Ġgradually": 9533, "Ġinstruction": 9534, "_cache": 9535, "Ke": 9536, "Map": 9537, "Ġassets": 9538, "Ġmembership": 9539, "Ġfrag": 9540, "onder": 9541, "verning": 9542, "ĠRef": 9543, "quir": 9544, "Ġsettled": 9545, "DR": 9546, "_argument": 9547, "Ġworse": 9548, "(user": 9549, "incoln": 9550, "ni": 9551, "ĠKenn": 9552, "omot": 9553, "Ġinteract": 9554, "Ġtrigger": 9555, "ĠEngineering": 9556, "Ġhydro": 9557, "anches": 9558, "Ġcontents": 9559, "ĠGuide": 9560, "Ġteeth": 9561, "ĠCastle": 9562, "ĠCH": 9563, "ĠNic": 9564, "Ġwinners": 9565, "Ġgolden": 9566, "olitan": 9567, "Ġextent": 9568, "Are": 9569, "ĠExpl": 9570, "Ġzip": 9571, "Ġcos": 9572, "orrect": 9573, "Ġconsumption": 9574, "blem": 9575, "Ġindicate": 9576, "Ġfaces": 9577, "elle": 9578, "urches": 9579, "Ġrecipes": 9580, "Ġwarning": 9581, "una": 9582, "iga": 9583, "Ġhoney": 9584, "Ġmodified": 9585, "Ġexposure": 9586, "Ġtrav": 9587, ".list": 9588, "ĠBu": 9589, "ĠLocal": 9590, "Ġfarmers": 9591, "kind": 9592, "Ġapartment": 9593, "post": 9594, "Ġsmile": 9595, "Ġsurrounded": 9596, "Ġensuring": 9597, "Ġexpectations": 9598, "Ġkinds": 9599, "aste": 9600, "Ġdelight": 9601, "iability": 9602, ".request": 9603, "ĠOtt": 9604, "iral": 9605, "odge": 9606, "ĠNC": 9607, "Ġticket": 9608, "anded": 9609, "Ġmit": 9610, "Ġnovels": 9611, "Ġexceed": 9612, "iffer": 9613, "achment": 9614, "Ġbrothers": 9615, "kw": 9616, "ĠPhys": 9617, "Ġknock": 9618, "ĠHighway": 9619, "Ġscoring": 9620, "uality": 9621, "=s": 9622, "rac": 9623, "Ġmoves": 9624, "Ġvit": 9625, "ĠNO": 9626, "ĠNon": 9627, ".ap": 9628, "Ġcake": 9629, "ennessee": 9630, "Ġsynt": 9631, "Ġbron": 9632, "ĠLes": 9633, "Ġrefers": 9634, "ĠOcean": 9635, "NESS": 9636, "Ġtrap": 9637, "Ġbless": 9638, "End": 9639, "Ġpitch": 9640, "Ġsignature": 9641, "Ġalcohol": 9642, "%(": 9643, "ĠPremier": 9644, "_up": 9645, "common": 9646, "Ġscientists": 9647, "client": 9648, "END": 9649, "isting": 9650, "Ġsacr": 9651, "Ġaside": 9652, "Ġconverted": 9653, "Ġunicode": 9654, "ĠKnow": 9655, "SON": 9656, "ureau": 9657, "ĠCorps": 9658, "Ġsoccer": 9659, "Ġkil": 9660, "ĠContin": 9661, "KEY": 9662, "FO": 9663, "Ġcounsel": 9664, "etherlands": 9665, "Ġtank": 9666, "Ġconsequences": 9667, "Ġsrc": 9668, "strip": 9669, "Ġbold": 9670, "Ġbreast": 9671, "Ġproductivity": 9672, "ÑĢ": 9673, "aug": 9674, "Ġpounds": 9675, "(cls": 9676, "ĠNE": 9677, "Ġgrid": 9678, "Ġlect": 9679, "Ġnodes": 9680, "Ġneither": 9681, "ackage": 9682, "Ġpermissions": 9683, "ĠBooks": 9684, "otton": 9685, "ĠNep": 9686, "Ġincredible": 9687, "utenant": 9688, "orship": 9689, "agues": 9690, "_block": 9691, "Ġcategories": 9692, "Ġcreatures": 9693, "Ġpump": 9694, "mail": 9695, "Ġcheap": 9696, "Ġequivalent": 9697, "Mark": 9698, "Ġbrowser": 9699, "Ġ'_": 9700, "ĠHeart": 9701, "oa": 9702, "Ġtower": 9703, "Ġease": 9704, "Module": 9705, "ĠSpr": 9706, "dated": 9707, "Manager": 9708, "%)": 9709, "break": 9710, "Ġstrict": 9711, "icide": 9712, "Ġ%(": 9713, "Ġinitiatives": 9714, ").__": 9715, "har": 9716, "Ã¦": 9717, "ĠKansas": 9718, "Ġelectricity": 9719, "Ġinvited": 9720, "Ġengines": 9721, "ĠFull": 9722, "agonist": 9723, "'ll": 9724, "Content": 9725, "ĠApache": 9726, "Ġpaths": 9727, "enna": 9728, "Ġdrum": 9729, "aver": 9730, "_trans": 9731, "Ġantic": 9732, "ĠMS": 9733, "Olymp": 9734, "ĠNet": 9735, "Ġderived": 9736, "Ġdipl": 9737, "TC": 9738, "Red": 9739, "ushing": 9740, "Ġafraid": 9741, "Ġencoding": 9742, "Ġcoat": 9743, "Ġsubjects": 9744, "ORM": 9745, "'re": 9746, "ĠTok": 9747, "Ġ-*-Ċ": 9748, "non": 9749, "olicy": 9750, "Ġentrance": 9751, "(str": 9752, "ĠDigital": 9753, "Ġlimits": 9754, "Christ": 9755, "Ġkilling": 9756, "istent": 9757, "rated": 9758, "Ġinjuries": 9759, "]+": 9760, "reshold": 9761, "lights": 9762, ".pl": 9763, "Sports": 9764, "tx": 9765, "Ġlegend": 9766, "ĠTurk": 9767, "Ġsituated": 9768, "Source": 9769, "Ġsubsc": 9770, "-style": 9771, "roit": 9772, "Ġdefine": 9773, "Ġflying": 9774, "Ġdecade": 9775, "Ġpromoted": 9776, ".execute": 9777, "Sm": 9778, "Ġfilling": 9779, "_fl": 9780, "Ġrear": 9781, "Ġarrested": 9782, "ĠExper": 9783, "Ġvocal": 9784, "Ġroyal": 9785, "Ġfought": 9786, "ito": 9787, "_command": 9788, "ĠAccess": 9789, "older": 9790, "ĠCA": 9791, "rible": 9792, "ĠBox": 9793, "Ġsalad": 9794, "Ä±": 9795, "amps": 9796, "raine": 9797, "pa": 9798, "IRE": 9799, "late": 9800, "ĠMiller": 9801, "bot": 9802, "uisine": 9803, "anchester": 9804, "Ġdynamic": 9805, "mus": 9806, "ĠExecutive": 9807, "ĠPR": 9808, "Mon": 9809, "Ġexpat": 9810, "++": 9811, "Ġtrib": 9812, "CK": 9813, "Ã¸": 9814, "Ġlayout": 9815, "span": 9816, "LA": 9817, "Ġcontributions": 9818, "ĠTemple": 9819, "Ġproof": 9820, "istribution": 9821, "Ġpink": 9822, "Ġnutr": 9823, "Ġmoist": 9824, "rav": 9825, "ĠSimon": 9826, "stop": 9827, "Ġcorresponding": 9828, "emet": 9829, "Ġuniverse": 9830, "aus": 9831, "Ġconfident": 9832, "LS": 9833, "ĠEth": 9834, "ĠPur": 9835, "Ġemissions": 9836, "Ġgolf": 9837, "ĠFIT": 9838, "Ġagents": 9839, "Ġsuffering": 9840, "Widget": 9841, "Ġinstruments": 9842, "Factory": 9843, "othe": 9844, "aying": 9845, "Ġmetadata": 9846, "Ġimmediate": 9847, "ilst": 9848, "ĠBased": 9849, "Ġgraduate": 9850, "ĠBrian": 9851, "_no": 9852, "ART": 9853, "wd": 9854, "Ġrepresentation": 9855, "Ġtensorflow": 9856, "Ġmeals": 9857, "ĠInstagram": 9858, "ĠVideo": 9859, "Ġproved": 9860, "Service": 9861, "ĠGreg": 9862, "Ġstruck": 9863, "Ġmeets": 9864, "Ġvice": 9865, "ecode": 9866, "Ġupcoming": 9867, "obby": 9868, "Ġpulled": 9869, "peed": 9870, "ĠStory": 9871, "Ġincreases": 9872, "div": 9873, "ĠÏ": 9874, "Ġcomplement": 9875, "anz": 9876, "Ġprove": 9877, "Ġreaction": 9878, "Ġengineer": 9879, "Ġfalling": 9880, "EP": 9881, "ĠSaf": 9882, "_image": 9883, ".txt": 9884, "Bi": 9885, "razy": 9886, "ĠKat": 9887, "apore": 9888, "_label": 9889, "ameter": 9890, "Ġenabled": 9891, "Ġcontrolled": 9892, "ghan": 9893, "racy": 9894, "ĠDisc": 9895, "Ġcoaches": 9896, "tery": 9897, "Ġoldest": 9898, "Ġintent": 9899, "Ġweekly": 9900, "Ġmonthly": 9901, "Ġproposal": 9902, "orous": 9903, "Ġrecognize": 9904, "United": 9905, "Ġshr": 9906, "ĠUnivers": 9907, "Ġadvis": 9908, "Ġchose": 9909, "ĠNorm": 9910, ".col": 9911, "ashes": 9912, "float": 9913, "Ġwatched": 9914, "utt": 9915, "ĠTrack": 9916, "Ġmuscle": 9917, "Ġregistration": 9918, "Her": 9919, "Ġhab": 9920, "Ġdiscipl": 9921, "ITION": 9922, "xml": 9923, "ĠIndiana": 9924, "aux": 9925, "iously": 9926, "Ġsymp": 9927, "Ġdesert": 9928, "stitut": 9929, "cers": 9930, "idation": 9931, "Ġstake": 9932, "orus": 9933, "ĠBarb": 9934, "Ġprogramme": 9935, "Ġgoverning": 9936, "-east": 9937, "inth": 9938, "ĠShort": 9939, "uv": 9940, "gments": 9941, "Ġqualified": 9942, "ĠCub": 9943, "_V": 9944, "ĠMarsh": 9945, "Ġkeyboard": 9946, "Ġunexpected": 9947, "nie": 9948, "ĠPrize": 9949, "there": 9950, "ĠDVD": 9951, "ĠJews": 9952, "Ġsending": 9953, "Ġthy": 9954, "Ġprinted": 9955, "found": 9956, "Once": 9957, "Ġtargets": 9958, "lose": 9959, "olutely": 9960, "ĠMarketing": 9961, "-E": 9962, "_at": 9963, "ampl": 9964, "terday": 9965, "Ġlessons": 9966, "_item": 9967, "ÑĤ": 9968, "ĠDick": 9969, "elve": 9970, "orable": 9971, "Ġundert": 9972, "Page": 9973, "anga": 9974, "zes": 9975, "ĠEvent": 9976, "Ġintegrated": 9977, "iami": 9978, "Ġkeeps": 9979, "Ġroads": 9980, "Ġplug": 9981, "Ġchildhood": 9982, "Ġoutl": 9983, "Ġunus": 9984, "aders": 9985, "meta": 9986, "ĠMind": 9987, "erk": 9988, "Ġhosts": 9989, "grid": 9990, "Ġdepends": 9991, "_init": 9992, "(node": 9993, "Ġcups": 9994, "Rel": 9995, "abama": 9996, "Ġsocket": 9997, "Ġdisappoint": 9998, "Ġrequested": 9999, "=['": 10000, ".net": 10001, "Ġcrash": 10002, "ĠThose": 10003, "eld": 10004, "#!": 10005, "ĠLewis": 10006, "oreign": 10007, "Ġpadd": 10008, "ĠWow": 10009, "Bar": 10010, "Ġceremony": 10011, "ĠĠĠĠĠĠĠĠĠĠĠĠĊ": 10012, "igs": 10013, "mo": 10014, "ĠText": 10015, "Ġille": 10016, "Ġdreams": 10017, "ika": 10018, "hr": 10019, "Ġimagine": 10020, "ĠKorean": 10021, "Ġbands": 10022, "Ġworst": 10023, "Ġ;": 10024, "ĠPUR": 10025, "ferred": 10026, "_option": 10027, "agen": 10028, "ĠTraining": 10029, "ULAR": 10030, "anes": 10031, "aturally": 10032, "Parser": 10033, "ĠWisconsin": 10034, "ĠAz": 10035, "ĠGreece": 10036, "ĠFarm": 10037, "ĠGer": 10038, "Ġdisk": 10039, "ĠPhot": 10040, "ĠDor": 10041, "ĠSilver": 10042, "Ġentreprene": 10043, "ĠSciences": 10044, "Ġparish": 10045, ".')Ċ": 10046, "had": 10047, "Ġdocumentary": 10048, "ĠAtlantic": 10049, "ĠMinistry": 10050, "(type": 10051, "itzerland": 10052, "nu": 10053, "-west": 10054, "Ġtickets": 10055, "(cr": 10056, "ĠNFL": 10057, "_link": 10058, "Ġdiscovery": 10059, "Ġelig": 10060, "Ġ</": 10061, "Ġsurvive": 10062, "claimed": 10063, "Ġpm": 10064, "Ġstatic": 10065, "wegian": 10066, "ODO": 10067, "Ġtranslation": 10068, "ĠStat": 10069, "Ġdeals": 10070, "irk": 10071, "aga": 10072, "ĠComput": 10073, "ĠDark": 10074, "Ġwooden": 10075, "ĠLie": 10076, "Ġalleged": 10077, "Ġopposition": 10078, "Ġreporting": 10079, "abels": 10080, "Table": 10081, "Ġexploring": 10082, "%.": 10083, "(['": 10084, "Ġtender": 10085, "Ġhighway": 10086, "rait": 10087, "Ġgym": 10088, "Ġmini": 10089, "Ġattr": 10090, "_valid": 10091, "Tr": 10092, "master": 10093, ".end": 10094, "Ġunittest": 10095, "(obj": 10096, "Ġhurt": 10097, "ĠYe": 10098, "Ġnavigate": 10099, "Ġintellect": 10100, "Ġdescent": 10101, "Ġjoining": 10102, "such": 10103, "plant": 10104, "Ġages": 10105, "Ġhasattr": 10106, ".replace": 10107, "Ġconcrete": 10108, "POSE": 10109, "_func": 10110, "ĠHo": 10111, "appro": 10112, "oda": 10113, "ĠBurn": 10114, "iversary": 10115, "emetery": 10116, "Ġplane": 10117, "HTTP": 10118, "height": 10119, "cal": 10120, "igation": 10121, "ĠRyan": 10122, "Ġforever": 10123, "ĠBishop": 10124, "ĠTransport": 10125, "ĠOverall": 10126, "Ġrising": 10127, ".send": 10128, "ĠEarly": 10129, "ĠCambridge": 10130, "ĠIM": 10131, "ĠAdam": 10132, "_template": 10133, "Ġexecution": 10134, "Ġwrest": 10135, "ĠBaseball": 10136, "Str": 10137, "ĠHTTP": 10138, "_is": 10139, "Ġinference": 10140, "RI": 10141, "Ġbirthday": 10142, "ĠSound": 10143, "Ġgender": 10144, "ixed": 10145, "Ġlawyer": 10146, "ĠGil": 10147, "Ġtemporary": 10148, "Ġvend": 10149, "oval": 10150, "Ġpossibility": 10151, "Ġhook": 10152, "eli": 10153, "ĠSite": 10154, "ĠAgain": 10155, "front": 10156, "olk": 10157, "ĠFle": 10158, "otten": 10159, ":%": 10160, "Ġconversion": 10161, "Ġlin": 10162, "Ġsubsequent": 10163, "ĠBC": 10164, "ĠFather": 10165, "Ġinvolving": 10166, "ĠThough": 10167, "ĠTurkey": 10168, "ĠPitt": 10169, "ĠMER": 10170, "stal": 10171, "Ġtries": 10172, "-com": 10173, "Ġwing": 10174, "ASE": 10175, "stic": 10176, ".has": 10177, "Input": 10178, "Ġcooked": 10179, "Ġdrinking": 10180, "eting": 10181, "ĠHur": 10182, "brid": 10183, "ĠNetherlands": 10184, "Ġsnap": 10185, "ĠRoss": 10186, "Ġvon": 10187, "Ġperiods": 10188, "ropical": 10189, "Ġfantastic": 10190, "Ġdistricts": 10191, "fire": 10192, ".patch": 10193, "ĠAC": 10194, "Ġda": 10195, "Ġmoon": 10196, "ĠEmily": 10197, "otted": 10198, "Ġfalls": 10199, "Tube": 10200, "Ġprime": 10201, "loom": 10202, "oen": 10203, "ĠElement": 10204, "Ġdebug": 10205, "Ġmolec": 10206, "Ġtested": 10207, "Ġentitled": 10208, "Context": 10209, "Ġvalley": 10210, "cr": 10211, "ibraries": 10212, "Ġinvalid": 10213, "Career": 10214, "Ref": 10215, "ĠCa": 10216, "Ġevolution": 10217, "ORD": 10218, "Ġvoid": 10219, "ĠTennessee": 10220, "ĠQueens": 10221, "Ġcock": 10222, "ĠRemember": 10223, "Ġanswers": 10224, "Ġstatements": 10225, "ĠSem": 10226, "UE": 10227, "Ġpriority": 10228, "arty": 10229, "Ġexpenses": 10230, "Ġdesignated": 10231, "ĠWind": 10232, "Ġinvestors": 10233, "agan": 10234, "Ġhardware": 10235, "bal": 10236, "ordan": 10237, "ĠLeon": 10238, "ĠNap": 10239, "ĠMemorial": 10240, "Ġaged": 10241, "Ġbreaking": 10242, "GE": 10243, "imit": 10244, "Ġstadium": 10245, "uns": 10246, "Writ": 10247, "null": 10248, "Ġble": 10249, "-out": 10250, "Ġbreaks": 10251, "ĠPu": 10252, "gener": 10253, "Ġinstances": 10254, "ambiguation": 10255, "father": 10256, "atoes": 10257, "Ġbg": 10258, "estab": 10259, "ĠBat": 10260, "OUR": 10261, "Villages": 10262, "Ġuncle": 10263, "usal": 10264, "Ġjur": 10265, "car": 10266, "Ġdur": 10267, "ĠDog": 10268, "Ġrugby": 10269, "ĠBuck": 10270, "uther": 10271, "ĠGarden": 10272, "Best": 10273, "write": 10274, "escription": 10275, "Ġbigger": 10276, "haust": 10277, "GA": 10278, "Ġdesigner": 10279, "ista": 10280, "ĠColon": 10281, "including": 10282, "><": 10283, "ĠTen": 10284, "ĠChoose": 10285, "Olympic": 10286, "Cal": 10287, "Ġcher": 10288, "arest": 10289, "otes": 10290, "Ġrepresentative": 10291, "Ġcomparison": 10292, "ĠAdministration": 10293, "epth": 10294, "Ġdir": 10295, "bra": 10296, "ĠCru": 10297, "Ġcogn": 10298, "Ġstead": 10299, "Ġlyrics": 10300, "Create": 10301, "Ġdescribes": 10302, "bow": 10303, "Ġparticipated": 10304, "inking": 10305, "ĠStadium": 10306, "Despite": 10307, "athered": 10308, "CHANT": 10309, "Ġcapabilities": 10310, "Ġchest": 10311, "some": 10312, "olving": 10313, "Ġformula": 10314, "ĠSenior": 10315, "wing": 10316, "Ġrenamed": 10317, "they": 10318, "ussion": 10319, "Ġtub": 10320, "entity": 10321, "Ġgear": 10322, "lessly": 10323, "ĠBan": 10324, "ICE": 10325, "zo": 10326, "imp": 10327, "Off": 10328, "Ġphotography": 10329, "Build": 10330, "athy": 10331, "close": 10332, "Ġcookies": 10333, "Min": 10334, "avid": 10335, "_out": 10336, "Ġmoder": 10337, "BI": 10338, "Ġentries": 10339, "attern": 10340, "Ġparallel": 10341, "Where": 10342, "ĠNever": 10343, "Ġmedalists": 10344, "contin": 10345, "Ġdriven": 10346, "ĠCS": 10347, "ĠDC": 10348, "Ġstudying": 10349, "din": 10350, "Ġchunk": 10351, "hedral": 10352, "Ġprocedures": 10353, "Ġanticip": 10354, "Ġbackup": 10355, "Ġlemon": 10356, "Ġintense": 10357, "Ġbars": 10358, "Ġdisplayed": 10359, "ĠBatt": 10360, "ĠDer": 10361, "Ġappointment": 10362, "rule": 10363, "Ġflags": 10364, "ĠPURPOSE": 10365, "ĠDave": 10366, "Ġliterary": 10367, "ĠArthur": 10368, "Ġdrums": 10369, "acon": 10370, "_NAME": 10371, "_W": 10372, "Ġdiscussed": 10373, "ĠOak": 10374, "Ġusername": 10375, "_db": 10376, "aza": 10377, "Found": 10378, "Ġintegration": 10379, "ĠFITNESS": 10380, "neg": 10381, "Ġdust": 10382, "Ġheritage": 10383, "ĠFA": 10384, "ĠAthlet": 10385, "ĠAge": 10386, "agraph": 10387, "ĠFriend": 10388, "Ġskip": 10389, "Ġtransaction": 10390, "Ġphilosophy": 10391, "ĠRegion": 10392, "ĠLincoln": 10393, "search": 10394, "ĠForeign": 10395, "ODE": 10396, "ĠTal": 10397, ".connect": 10398, "ĠMun": 10399, "Ġcoaching": 10400, "rint": 10401, "inning": 10402, "ĠPARTIC": 10403, "Ġtotally": 10404, "local": 10405, "_number": 10406, "ĠChannel": 10407, "about": 10408, "Ġsees": 10409, "ĠHan": 10410, "Ġdescript": 10411, "Ġgrace": 10412, "Ġbytes": 10413, "Ġopposed": 10414, "Ġavailability": 10415, "Ġsubmit": 10416, "GET": 10417, "Ġhorror": 10418, "asic": 10419, "'][": 10420, "ythm": 10421, "ulum": 10422, "Ġpeak": 10423, ".sh": 10424, "Ġcompens": 10425, "Ġimplementing": 10426, "Ñģ": 10427, "ĠEss": 10428, "ãĤ": 10429, "Ġlegislation": 10430, "World": 10431, "Any": 10432, "Ġod": 10433, "ĠBush": 10434, "ĠHart": 10435, "quer": 10436, "vi": 10437, "ĠLyn": 10438, "ĠDu": 10439, "ĠDid": 10440, "Ġaffili": 10441, "Ġ\"/": 10442, "-ex": 10443, "onut": 10444, "ĠIV": 10445, "Ġportray": 10446, "_task": 10447, "make": 10448, "duced": 10449, "Ġgovernor": 10450, "ĠFollowing": 10451, "iley": 10452, "hand": 10453, "users": 10454, "Ġmaintained": 10455, "Ġworship": 10456, "ĠSwiss": 10457, "utton": 10458, "Ġromantic": 10459, "essages": 10460, "Color": 10461, "_a": 10462, "Ġhole": 10463, "Ġcuisine": 10464, "Jan": 10465, "ificial": 10466, "Ġgreatly": 10467, "inite": 10468, "Ġfrustr": 10469, "Ġtrains": 10470, "ĠNext": 10471, "ĠKentucky": 10472, "Ġstruggling": 10473, "Ġdon't": 10474, "Ġwaves": 10475, "ĠStone": 10476, "ĠFinal": 10477, "otion": 10478, "Ġcow": 10479, "Ġdebate": 10480, ".exit": 10481, "Members": 10482, "(None": 10483, "ĠPARTICULAR": 10484, "Ġprocedure": 10485, "ibl": 10486, "math": 10487, "Ġstrategic": 10488, "lections": 10489, "ĠChap": 10490, "ĠMagazine": 10491, "Ġtom": 10492, "Ġdisable": 10493, "ĠDiego": 10494, "ĠBrig": 10495, "Ġrating": 10496, "Ġownership": 10497, "lass": 10498, "Ġcultiv": 10499, ".startswith": 10500, "Ġrows": 10501, "General": 10502, "-known": 10503, "ĠAI": 10504, "Ġconcentration": 10505, "ĠVi": 10506, "ĠAlabama": 10507, "Ġplugin": 10508, "lav": 10509, "Ġblend": 10510, "Ġvine": 10511, "plicated": 10512, "CHANTABILITY": 10513, "Ġmindfulness": 10514, "ĠSquare": 10515, "Ġhappening": 10516, "DC": 10517, "Ġbottle": 10518, "Point": 10519, "ictional": 10520, "ĠChild": 10521, "Ġpreferred": 10522, "atern": 10523, "disambiguation": 10524, "Ġconsciousness": 10525, "British": 10526, "_ID": 10527, "ĠSix": 10528, "call": 10529, "urse": 10530, "Ġjazz": 10531, "Ġcable": 10532, "Ġmillions": 10533, "wer": 10534, "zip": 10535, "Ġnormally": 10536, "Ġpromise": 10537, ".from": 10538, "bi": 10539, "Ġstunning": 10540, "outheast": 10541, "Ġagriculture": 10542, "mi": 10543, "Ġdeeply": 10544, "_end": 10545, "Ġcompete": 10546, "him": 10547, "models": 10548, "Ġpilot": 10549, "Ġsearching": 10550, "endment": 10551, "anwhile": 10552, ".remove": 10553, "_import": 10554, "MC": 10555, "Ġrecycl": 10556, "Ġfranch": 10557, "ĠLat": 10558, "Ġnarrative": 10559, "ĠFun": 10560, "ateur": 10561, "_fields": 10562, "Ġdealing": 10563, "ĠFile": 10564, "Ġdeploy": 10565, "Ġsuperior": 10566, "Ġapproval": 10567, "apse": 10568, "ĠSearch": 10569, "Ġpublisher": 10570, "ĠDisney": 10571, "aire": 10572, "ĠSweden": 10573, "Ġtrick": 10574, "Ġcorrectly": 10575, "Ġassessment": 10576, "iva": 10577, "bound": 10578, "Note": 10579, "ĠOfficial": 10580, "vider": 10581, "ĠSwitzerland": 10582, "omy": 10583, "acles": 10584, "ahoma": 10585, "Ġ'<": 10586, "Ġhoriz": 10587, "ĠMissouri": 10588, "hetic": 10589, "Ġuncertain": 10590, "Ġanalyze": 10591, "irts": 10592, "riers": 10593, "Ġreasonable": 10594, "ĠSpirit": 10595, "ĠLess": 10596, "eman": 10597, "ĠArgs": 10598, "ĠAmb": 10599, "Ġmob": 10600, "serve": 10601, "(un": 10602, "aria": 10603, "ĠFred": 10604, "Ġburied": 10605, "Ġopera": 10606, "inema": 10607, "azy": 10608, "ĠHouston": 10609, "Det": 10610, ".exists": 10611, "func": 10612, "angel": 10613, "DP": 10614, "_session": 10615, "Ġagricultural": 10616, "Ġcombine": 10617, "Ġvotes": 10618, "semble": 10619, "ĠMember": 10620, "Ġratio": 10621, "ĠHal": 10622, "Ġbags": 10623, "igenous": 10624, "`,": 10625, "Car": 10626, "files": 10627, "atching": 10628, "Ġcalendar": 10629, "Ġhide": 10630, "Ġske": 10631, "portion": 10632, "Ġinhabit": 10633, "engine": 10634, "Ġcovering": 10635, "Ġsons": 10636, "(file": 10637, "Ġnations": 10638, "ĠManchester": 10639, "ĠPier": 10640, "Ġski": 10641, "Ġhorses": 10642, "Ġnose": 10643, "acent": 10644, "#!/": 10645, "ĠØ": 10646, "Ġinher": 10647, "Command": 10648, "ĠFac": 10649, "Before": 10650, ".float": 10651, "Ġfiled": 10652, "Ġtraditions": 10653, "ois": 10654, "ĠDate": 10655, "_page": 10656, "ĠEN": 10657, "Ġvegan": 10658, "mock": 10659, "Ġtaxes": 10660, "imestamp": 10661, "Ġhang": 10662, ".contrib": 10663, "Ġencouraged": 10664, "Ġgene": 10665, "},": 10666, "ĠStaff": 10667, "oir": 10668, "Ġattorney": 10669, "ĠMethod": 10670, "ught": 10671, "-central": 10672, "ĠMarine": 10673, "Ġeducated": 10674, "Ġmyth": 10675, "ĠLiter": 10676, "Ġeffectiveness": 10677, "Ġgiant": 10678, "Ipv": 10679, "ĠDrag": 10680, "Ġunderstood": 10681, "ervations": 10682, "ĠEarl": 10683, "atal": 10684, "Ã£": 10685, "dale": 10686, "Ġbronze": 10687, "Ġpill": 10688, "atches": 10689, "ĠMelbourne": 10690, ".random": 10691, "Ġha": 10692, "ĠSab": 10693, "Ġresort": 10694, "Ġvictims": 10695, "Ġinjured": 10696, "ĠMoon": 10697, "ĠRight": 10698, "ordon": 10699, "Ġresidential": 10700, "ĠMERCHANTABILITY": 10701, "Ġcurious": 10702, "SD": 10703, "ĠTai": 10704, "orph": 10705, "Ġpul": 10706, "ribed": 10707, "Ġdevelopers": 10708, "reement": 10709, "Top": 10710, "Ġsuppl": 10711, "Ġluck": 10712, "à¥": 10713, "_form": 10714, "otype": 10715, "oven": 10716, ".filter": 10717, "klahoma": 10718, "ĠTreat": 10719, "ĠHollywood": 10720, "Ġconstitu": 10721, "Ġcluster": 10722, "Ġranked": 10723, ".return": 10724, "á½": 10725, "Ġinstant": 10726, "inet": 10727, "ropolitan": 10728, "Ġconvenient": 10729, "Ġquote": 10730, "Ġformerly": 10731, "Ġansible": 10732, "annot": 10733, "%s": 10734, "Ġinputs": 10735, "ĠBab": 10736, "Ġads": 10737, "Ð½": 10738, "aware": 10739, "[key": 10740, "ĠSmall": 10741, "dev": 10742, "Current": 10743, "ĠSquad": 10744, "Ġfing": 10745, "ĠFrancis": 10746, "lesh": 10747, "Ġids": 10748, "-line": 10749, "Ġprinting": 10750, "argo": 10751, "Ġized": 10752, "ubb": 10753, "Ġcareful": 10754, "tainment": 10755, "Ġspark": 10756, "Ġsucceeded": 10757, "ĠJam": 10758, "ĠSingapore": 10759, "holders": 10760, "/%": 10761, "Ġleaf": 10762, "Ġfollowers": 10763, "_reg": 10764, "ĠDoctor": 10765, "Ġfruits": 10766, "cow": 10767, "III": 10768, "Ġaccompan": 10769, "Ġabandoned": 10770, "Ġpayments": 10771, "Ġsettle": 10772, "Ġrapidly": 10773, "Ġsubsid": 10774, "Ġsuffer": 10775, "ĠBarn": 10776, "App": 10777, "Ġlogo": 10778, "ĠFall": 10779, "Ġfocusing": 10780, "inates": 10781, "Ġprospect": 10782, "ĠCR": 10783, "omer": 10784, "ĠKa": 10785, "Ġcrown": 10786, "week": 10787, "ĠNaz": 10788, "Ġorient": 10789, "-being": 10790, "Ġpackages": 10791, "odd": 10792, "agh": 10793, "mbol": 10794, "Ġstable": 10795, "Ġflavors": 10796, "Ġrefuge": 10797, "_filter": 10798, "Ġsuspect": 10799, "Ġgraphics": 10800, "Ġprotocol": 10801, "Ġworker": 10802, "Ġcalculate": 10803, "ĠAlf": 10804, "note": 10805, "Ġcreativity": 10806, "\",\"": 10807, "(filename": 10808, "Ã©e": 10809, "Ġsid": 10810, "Ġscores": 10811, "Ġaccuracy": 10812, "ussian": 10813, "_app": 10814, "Ġevaluation": 10815, "Ġkingdom": 10816, "'d": 10817, "ante": 10818, "Ġentering": 10819, ".O": 10820, "Ġgay": 10821, "ĠPict": 10822, "Ġreferences": 10823, "bian": 10824, "ikes": 10825, "ĠPhilip": 10826, "Ġexhibition": 10827, "ĠAndroid": 10828, "agu": 10829, "0x1": 10830, "ĠEric": 10831, "Ġpairs": 10832, "Ġhes": 10833, "Ġmetrics": 10834, "Ġtip": 10835, "Ġspeaker": 10836, "Ġexposed": 10837, "jection": 10838, "encer": 10839, "ĠAccount": 10840, "_server": 10841, "Ġdining": 10842, "amental": 10843, "Ġfilters": 10844, "ĠSystems": 10845, "Action": 10846, "ĠPsych": 10847, "ĠJoh": 10848, "ĠHope": 10849, "Ġmile": 10850, "ti": 10851, "Ġincorporated": 10852, "ĠSwedish": 10853, "char": 10854, "filter": 10855, "Ġeveryday": 10856, "ĠCirc": 10857, "ĠNatural": 10858, "Ġprize": 10859, "ĠCre": 10860, "Ġclosing": 10861, "ĠChall": 10862, "bin": 10863, "ASS": 10864, "ĠCase": 10865, "ĠAction": 10866, "allas": 10867, "_content": 10868, "verty": 10869, "Ġtiny": 10870, "asm": 10871, ".'Ċ": 10872, "Ġbonus": 10873, "âĢľThe": 10874, "Ġtech": 10875, "adi": 10876, "(y": 10877, "ĠEns": 10878, ".fl": 10879, "ĠJunior": 10880, "ĠStore": 10881, "Tests": 10882, "La": 10883, "Ġgrateful": 10884, "Ġmusician": 10885, "elli": 10886, "Ġheaded": 10887, "Ġmanip": 10888, "Ġsoph": 10889, "Ġoccupied": 10890, "Ġcharacteristics": 10891, "_num": 10892, "igious": 10893, "earing": 10894, "Ġmanufacturer": 10895, "ĠGallery": 10896, "Ġchoosing": 10897, "Ġbelieves": 10898, "ĠAbsolutely": 10899, "'},Ċ": 10900, "(T": 10901, "Implement": 10902, "Ġdecline": 10903, "_im": 10904, "Ġshapes": 10905, "ĠShip": 10906, "Ġminimal": 10907, "_rec": 10908, "Ġpassengers": 10909, "leting": 10910, "Ġnurs": 10911, "Austral": 10912, "pp": 10913, "Who": 10914, "Process": 10915, "Ġtitled": 10916, "ocus": 10917, "ĠTable": 10918, "Ġfunctional": 10919, "ĠQt": 10920, "Ġcolleagues": 10921, "Ġtennis": 10922, "sex": 10923, "Ġaims": 10924, ".keys": 10925, "|align": 10926, "ĠEver": 10927, "Ġpharm": 10928, "owed": 10929, "Ġawait": 10930, "ĠYouTube": 10931, "Ġcircle": 10932, "Ġroots": 10933, "ĠMiami": 10934, "Ġrig": 10935, "About": 10936, "cha": 10937, "ĠUnless": 10938, "ĠModern": 10939, "ĠProte": 10940, "Ġinsight": 10941, "Ġapproaches": 10942, "Ġpoverty": 10943, "Ġcharm": 10944, "record": 10945, "_y": 10946, "Ġconcepts": 10947, "Ġpandemic": 10948, "Ġtalked": 10949, "=======": 10950, "ĠSuch": 10951, "Ġapparently": 10952, "_settings": 10953, "_const": 10954, ".search": 10955, "Ġwrites": 10956, "Ġbranches": 10957, "del": 10958, "ci": 10959, "ĠSky": 10960, "rane": 10961, "ĠLu": 10962, "Ġtort": 10963, "Ġutils": 10964, "Ġduration": 10965, "ĠCourse": 10966, "Ġnick": 10967, "Ġbin": 10968, "copy": 10969, "Ġamounts": 10970, "ĠRub": 10971, "URE": 10972, "ĠCzech": 10973, "Ġcul": 10974, "activ": 10975, "Ġrival": 10976, "Ġyesterday": 10977, "Ġsurprised": 10978, "Ġshoulder": 10979, "Ġconn": 10980, "_fn": 10981, "wealth": 10982, "Ġbelief": 10983, "Year": 10984, "wick": 10985, "Open": 10986, "Ġmarks": 10987, "Ġstayed": 10988, "ĠEmperor": 10989, "ĠDaily": 10990, "uli": 10991, "Ġpace": 10992, ".co": 10993, "Ġequipped": 10994, "ĠIowa": 10995, "Ġindependence": 10996, "ĠStudents": 10997, "arker": 10998, "_event": 10999, "ĠHD": 11000, "cerning": 11001, "Ġattempted": 11002, "omatic": 11003, "Ġcompeted": 11004, "ĠAllen": 11005, "Ġ~": 11006, "ĠKit": 11007, "eneath": 11008, "\"])Ċ": 11009, "_det": 11010, "Ġincent": 11011, "ĠMunicip": 11012, "istribute": 11013, "ĠCB": 11014, "Ġancest": 11015, "Ġcontinuing": 11016, "Ġcelebrated": 11017, "Ġpriorit": 11018, "ĠTODO": 11019, "Ġbeef": 11020, "ĠMap": 11021, "Ġtargeted": 11022, "Ġpreced": 11023, "Ġmoral": 11024, "hard": 11025, "Ġanswered": 11026, "ĠTerm": 11027, "Ġfir": 11028, "Ġchairman": 11029, "ĠFront": 11030, "Ġsensitive": 11031, "Que": 11032, "Ġvictim": 11033, "Ġvivid": 11034, "Ġrefresh": 11035, "Ġelder": 11036, "fish": 11037, "Ġflexible": 11038, "\\nS": 11039, "Ãº": 11040, "iour": 11041, ".compile": 11042, "Ġfairly": 11043, "onna": 11044, "Ġreception": 11045, "Ġroutes": 11046, "ĠPrice": 11047, "Ġoptimize": 11048, "Ġtroub": 11049, "Ġgenus": 11050, "player": 11051, "Ġpriest": 11052, "Ġshelter": 11053, "Ġlayers": 11054, "ĠVillage": 11055, "_base": 11056, "Ġluxury": 11057, "Ġsql": 11058, "Ġna": 11059, "ĠCloud": 11060, "Ġsixth": 11061, "u'": 11062, "Ġfindings": 11063, "ĠNepal": 11064, "Ġconservation": 11065, "zed": 11066, "ÅĦ": 11067, "Ġbell": 11068, "Ġseriously": 11069, "elson": 11070, "Ġguidelines": 11071, "MENT": 11072, "(X": 11073, "abc": 11074, "Ġdifficulty": 11075, "ĠHawai": 11076, "ĠDoes": 11077, "tegr": 11078, "Ġdeleg": 11079, "_prefix": 11080, "_Ċ": 11081, "Ġrum": 11082, "ĠEP": 11083, "ĠNorway": 11084, "Ġparticipation": 11085, "Ġwash": 11086, "ĠAmong": 11087, "API": 11088, "Ġlands": 11089, "achelor": 11090, "Output": 11091, "ugg": 11092, "ĠDead": 11093, "Ġlogin": 11094, "Ġfocuses": 11095, "Î±": 11096, "ĠLanguage": 11097, "!âĢĿ": 11098, "Ġfur": 11099, "ĠNev": 11100, "ĠAbb": 11101, "Ġconfront": 11102, "second": 11103, "pression": 11104, "ĠAnderson": 11105, ".de": 11106, "Ġappl": 11107, "ĠPlus": 11108, "Ġglob": 11109, "Ġpotentially": 11110, "Ġcompan": 11111, "Ġsteam": 11112, "usage": 11113, "message": 11114, "eding": 11115, "Ġtied": 11116, "Ġaddresses": 11117, "ĠHold": 11118, "ige": 11119, "Ġfriendship": 11120, "Ġaer": 11121, "Ġfault": 11122, "changed": 11123, "Ġhoping": 11124, "Frame": 11125, "Ġarrival": 11126, "umph": 11127, "uating": 11128, "Ġshops": 11129, "Further": 11130, "Ġtrend": 11131, "Ġblind": 11132, "ĠOil": 11133, "Ġguns": 11134, "auto": 11135, "Oct": 11136, "Ġbeans": 11137, "Ġcallback": 11138, "_attr": 11139, "âĢľWe": 11140, "ĠAfghan": 11141, "Ġrelation": 11142, "Max": 11143, "Ġaggreg": 11144, "Ġsustainability": 11145, "Ġmatching": 11146, "Ġchronic": 11147, "OU": 11148, "anted": 11149, "Inst": 11150, "Status": 11151, "particle": 11152, "Ġdamaged": 11153, "(input": 11154, "ultane": 11155, "Ġwalks": 11156, "Ġpricing": 11157, "Ġ...Ċ": 11158, "ĠKevin": 11159, "ellite": 11160, "ĠNa": 11161, "SION": 11162, "ĠWARRANTY": 11163, "Ġdeck": 11164, "Ġincorporating": 11165, "(module": 11166, "Ġshortly": 11167, "igrants": 11168, "Ġcommunications": 11169, "Ġretrie": 11170, "ĠConc": 11171, "stack": 11172, "ĠBol": 11173, "Ġwidget": 11174, "Enter": 11175, "Ġinstitution": 11176, "Ġinitiative": 11177, "ocese": 11178, "ĠPrinc": 11179, "ĠClark": 11180, "ĠDetroit": 11181, "Orig": 11182, "Ġastr": 11183, "ĠHills": 11184, "Ġbeliefs": 11185, "adesh": 11186, "achel": 11187, "fficial": 11188, "Ġprotagonist": 11189, "Ġsaving": 11190, "Ġaccord": 11191, "gressive": 11192, ".all": 11193, "Ġreplied": 11194, "Ġpride": 11195, "ocracy": 11196, "Ġpenal": 11197, "Ġhabitat": 11198, "_DE": 11199, "Ġpainted": 11200, "Ġuniversities": 11201, "Ġdear": 11202, "inian": 11203, "Ġacquisition": 11204, "mates": 11205, "Ġwarnings": 11206, "ĠMedicine": 11207, "ĠCP": 11208, "Ġcontrols": 11209, "Ġverbose": 11210, "Ġpoems": 11211, "ĠHoward": 11212, "Ġcomposer": 11213, "product": 11214, "ĠCamer": 11215, "Server": 11216, "oses": 11217, "-min": 11218, "%,": 11219, "ceptions": 11220, "ĠShop": 11221, "Ġdough": 11222, "High": 11223, "Ġcomic": 11224, "ĠMuslim": 11225, "ffective": 11226, "Ġinventory": 11227, "ĠSever": 11228, "ctr": 11229, "imens": 11230, "Ġchecking": 11231, "ĠCape": 11232, "ups": 11233, ".J": 11234, "Ġattending": 11235, "Ġextend": 11236, "Ġexhaust": 11237, "idae": 11238, ")*": 11239, "Ġyoga": 11240, "ĠCapital": 11241, "Ġexpatriate": 11242, "Ġathletes": 11243, "unicode": 11244, "University": 11245, "umped": 11246, "Ġfolk": 11247, "]]": 11248, "Ġcompletion": 11249, "Ġqueue": 11250, "ĠDNA": 11251, "=t": 11252, "Ġaren": 11253, "assion": 11254, "Ġsavings": 11255, "Ġwake": 11256, "redict": 11257, "ĠPolicy": 11258, "ĠArmen": 11259, "Ġartistic": 11260, "Description": 11261, "Ġhung": 11262, "ilty": 11263, "Ġhip": 11264, "ĠLas": 11265, "Ġwings": 11266, "Ġshots": 11267, "ĠMatthew": 11268, "olas": 11269, "ĠBed": 11270, "Ġconsideration": 11271, "Ġvacc": 11272, "Ġarrive": 11273, "Ġimprovements": 11274, "Ġjournalist": 11275, "owner": 11276, "orer": 11277, "igure": 11278, "ĠPatrick": 11279, "raises": 11280, "Ġrely": 11281, "Ġcriteria": 11282, ".assertFalse": 11283, "ĠRegional": 11284, "itals": 11285, "ĠOK": 11286, ".call": 11287, "Ġstaying": 11288, "ĠCert": 11289, "mont": 11290, "rary": 11291, "ĠVeg": 11292, "_service": 11293, "bool": 11294, "Ġflower": 11295, "Ġcommander": 11296, "Ġedit": 11297, "-%": 11298, "Ġduties": 11299, "folio": 11300, ".open": 11301, "Ġadapted": 11302, "_as": 11303, "Ġwis": 11304, "ortheast": 11305, "??": 11306, "_header": 11307, "Ġseparated": 11308, "Ġfinger": 11309, "ultiple": 11310, "Ġtie": 11311, "ĠMove": 11312, "(context": 11313, "ĠDur": 11314, "ĠExpress": 11315, "._Ċ": 11316, "ĠÅģ": 11317, "burn": 11318, "ĠBowl": 11319, "////////////////": 11320, "llib": 11321, "Ġslot": 11322, "/t": 11323, "ĠSeason": 11324, "Ġ\"\"Ċ": 11325, "Ġresil": 11326, "ĠCOVID": 11327, "Ġphotographer": 11328, "spec": 11329, "dam": 11330, ")\",Ċ": 11331, ".max": 11332, "Ġpreparing": 11333, "Ġboxes": 11334, "ovie": 11335, "Ġdf": 11336, "ĠRecord": 11337, "result": 11338, "ĠIndex": 11339, ")(": 11340, "Given": 11341, "Ġadmitted": 11342, "ĠEU": 11343, "Ġphenomen": 11344, "License": 11345, "Mod": 11346, "Ġtalks": 11347, "Ġ_(\"": 11348, "Ġlosses": 11349, "ĠSche": 11350, "ĠIslamic": 11351, "Ġscal": 11352, "ifting": 11353, "ho": 11354, "Ġawesome": 11355, "cut": 11356, "rapper": 11357, "Ġmerely": 11358, "ĠAgency": 11359, "Ġgrounds": 11360, "Ġhired": 11361, "Ġlovely": 11362, "onth": 11363, "hemat": 11364, "ĠCurrent": 11365, "Ġgro": 11366, "aspoon": 11367, "Ġbacking": 11368, "Ġdowntown": 11369, "have": 11370, "Ġsuppor": 11371, "ĠAlb": 11372, "ĠCop": 11373, "Ġau": 11374, "Ġanch": 11375, "(in": 11376, "ĠBry": 11377, "ĠCut": 11378, "Ġpaintings": 11379, ".api": 11380, "Ġflood": 11381, "Ġdivor": 11382, "ĠEntertainment": 11383, "ĠYet": 11384, "Ġartwork": 11385, "Ġ(_": 11386, "ĠHim": 11387, "incial": 11388, "Ġaimed": 11389, "ounce": 11390, "Ġparliament": 11391, "eem": 11392, "ĠWolf": 11393, "Ġenumer": 11394, "ĠKIND": 11395, "yers": 11396, "Personal": 11397, "Ġsubmitted": 11398, "ĠMalays": 11399, "Ġ[[": 11400, "Music": 11401, "ĠLicensed": 11402, ".copy": 11403, "Result": 11404, "Ġrenov": 11405, "ĠBuild": 11406, "ĠAnswer": 11407, "hu": 11408, "ĠSC": 11409, "MB": 11410, "otte": 11411, "ĠProcess": 11412, "Ġprivacy": 11413, "Today": 11414, "Ġethnic": 11415, "Ġtransformation": 11416, "Array": 11417, "Ġdressed": 11418, "Ġville": 11419, "Ġspoken": 11420, "ractions": 11421, "Ġexplos": 11422, "Ġemotion": 11423, "ĠiPhone": 11424, "ĠCit": 11425, "Ġenables": 11426, "Ġrib": 11427, "Ġbgcolor": 11428, "ĠDa": 11429, "ĠRemove": 11430, "ĠStandard": 11431, "ĠBE": 11432, "ĠJason": 11433, "Ġgang": 11434, "Ġfinishing": 11435, "ializer": 11436, "ĠNAS": 11437, "ĠHTML": 11438, "ĠFer": 11439, "ĠAdvent": 11440, "Ġdrew": 11441, "igma": 11442, "acked": 11443, "/v": 11444, "apolis": 11445, ".model": 11446, "Ġine": 11447, ".index": 11448, "Ġteaspoon": 11449, "Ġpremium": 11450, "Ġaccused": 11451, "amel": 11452, "Ġpresents": 11453, "Ġangle": 11454, "Ġpopularity": 11455, "Ġonion": 11456, "ĠPersonal": 11457, "socket": 11458, ".state": 11459, "Ġdrinks": 11460, "=center": 11461, "_filename": 11462, "ĠAnne": 11463, "Ġconstra": 11464, "ĠBAS": 11465, "Ġghost": 11466, "Ġdemonstrate": 11467, "Ġgratitude": 11468, "PM": 11469, "original": 11470, "Ġdialogue": 11471, "ocial": 11472, "Ġregulations": 11473, "ĠMoh": 11474, "_new": 11475, "olars": 11476, "Ġassault": 11477, "_keys": 11478, "ĠEqu": 11479, "Ġconsole": 11480, "ĠOfficer": 11481, "onomy": 11482, "icked": 11483, "Ġguarantee": 11484, "Ġunusual": 11485, "Ġunp": 11486, "roduction": 11487, "ĠAffairs": 11488, "/m": 11489, "Ġpizza": 11490, "Ġdismiss": 11491, "iac": 11492, "Ġprovision": 11493, "Ġlett": 11494, "Ġfunctionality": 11495, "quire": 11496, "Ġcharity": 11497, "_def": 11498, "ĠDeath": 11499, "ĠPalest": 11500, "Ġintention": 11501, "Ġspots": 11502, "Ġlanding": 11503, "Ġliked": 11504, "ĠTa": 11505, "ĠMilitary": 11506, "Ġsymbols": 11507, "ctic": 11508, "ĠIron": 11509, "Ġrescue": 11510, "olo": 11511, "through": 11512, "DITION": 11513, "Ġtrem": 11514, "ĠBaron": 11515, "Ġpushed": 11516, "Ġfleet": 11517, "ĠSport": 11518, "Ġelectrical": 11519, "uite": 11520, "Ġmining": 11521, "Ġexplains": 11522, "~~~~": 11523, "ĠAnaly": 11524, "Tra": 11525, "Ġstrongly": 11526, "unes": 11527, "Ġoutstanding": 11528, "heim": 11529, "Ġshore": 11530, "lik": 11531, "Ġsigning": 11532, "_dis": 11533, "itement": 11534, "Ġindicates": 11535, "Ã£o": 11536, "Ġnaturally": 11537, "closed": 11538, "ĠVietnam": 11539, "_msg": 11540, "Ġmathemat": 11541, "GR": 11542, "olver": 11543, "Ġloans": 11544, "ĠMother": 11545, "ĠEag": 11546, "Ġstruggles": 11547, "Ġtension": 11548, "ĠImpro": 11549, "onymous": 11550, ".delete": 11551, "secutive": 11552, "Ġregarded": 11553, "Ġmixing": 11554, "Ġinteraction": 11555, "ĠMedal": 11556, "dest": 11557, "vt": 11558, "-col": 11559, "rish": 11560, "Ġlon": 11561, "Aug": 11562, "cker": 11563, "_mock": 11564, "Ġreserve": 11565, "ĠWebsite": 11566, ")),": 11567, "Ġvolunteers": 11568, "-le": 11569, "Ġoccasionally": 11570, "ĠIsraeli": 11571, "Ġgathered": 11572, "Ġfert": 11573, "Ġcm": 11574, "_fe": 11575, "cycle": 11576, "Ġsubstitute": 11577, "Ġdisaster": 11578, "Ġleather": 11579, "ĠSeattle": 11580, "Ġhighlights": 11581, "Ġevaluate": 11582, "ĠSE": 11583, "French": 11584, "ĠTrade": 11585, "ĠSym": 11586, "Ġloud": 11587, "number": 11588, "Ġlean": 11589, "Ġdomin": 11590, "({'": 11591, "ĠPhill": 11592, "ĠMit": 11593, "(id": 11594, "Ġrect": 11595, "quis": 11596, "ulatory": 11597, "ĠJordan": 11598, "Ġexecuted": 11599, "ĠFreder": 11600, "Ġbone": 11601, "umpy": 11602, "terior": 11603, "ĠOklahoma": 11604, "_iter": 11605, "Ġhtml": 11606, "ĠLegisl": 11607, "intend": 11608, "(Q": 11609, "Ġenjoying": 11610, "uda": 11611, "Ġov": 11612, "ĠBeaut": 11613, "Ġhappiness": 11614, "Ġvalidate": 11615, "-cont": 11616, "ĠConfig": 11617, "Ġunw": 11618, "rett": 11619, "IGN": 11620, "Ġmeta": 11621, "Ġtemperatures": 11622, ".base": 11623, "ĠSoph": 11624, "Ġkiss": 11625, "amma": 11626, "Ġpersonally": 11627, "ĠNob": 11628, "imore": 11629, "Ġwider": 11630, ".TestCase": 11631, "ĠRoy": 11632, "what": 11633, "Ġintellectual": 11634, "iah": 11635, "function": 11636, "icking": 11637, "Ġemerged": 11638, ".format": 11639, "ĠIndones": 11640, "olph": 11641, "ĠKal": 11642, "illiant": 11643, "ĠHas": 11644, "AV": 11645, "Ġchurches": 11646, "-end": 11647, "Ġnerv": 11648, "ĠAnthony": 11649, "Ġcodes": 11650, "Ġeleg": 11651, "_SE": 11652, "ĠNich": 11653, "netic": 11654, "will": 11655, "ĠStew": 11656, "ieval": 11657, ".int": 11658, "-de": 11659, "Ġsubstantial": 11660, "\"],": 11661, "xic": 11662, "Ġmyster": 11663, "loop": 11664, "ĠSn": 11665, ".args": 11666, "-mail": 11667, "Ġheadquarters": 11668, "graph": 11669, "Ġfrequent": 11670, "_tag": 11671, "uits": 11672, "Ġvirus": 11673, "ĠSH": 11674, "Ġpointed": 11675, "ĠJay": 11676, "lation": 11677, "Ġboss": 11678, "Ġverse": 11679, "Ġturb": 11680, "(__": 11681, "Ste": 11682, "ĠWas": 11683, "Ġcontinu": 11684, "Ġmotivation": 11685, "crets": 11686, "Ġelectron": 11687, "Ġregardless": 11688, "Ġresponses": 11689, "Ġplayoff": 11690, "Ġassume": 11691, "ublished": 11692, "Ġperm": 11693, "Ġsomewhere": 11694, "RC": 11695, "ĠAtlanta": 11696, "âĦ": 11697, "ammar": 11698, "ĠMoore": 11699, "Ġpursue": 11700, "Ġtraveling": 11701, "ogy": 11702, "ĠHamilton": 11703, "available": 11704, "ĠBah": 11705, "chi": 11706, "Ġcuts": 11707, "()[": 11708, "Ġresidence": 11709, "ĠRegiment": 11710, "Invalid": 11711, "theless": 11712, "Ġdirectors": 11713, "Ġtwelve": 11714, "ĠCle": 11715, "ĠComb": 11716, "_delete": 11717, "Ġredistribute": 11718, "Ġ):Ċ": 11719, "Ġhandler": 11720, "_process": 11721, "mad": 11722, "Person": 11723, "Ġcriticism": 11724, "Ġexplicit": 11725, "kip": 11726, "Populated": 11727, "Ġresid": 11728, "Life": 11729, "Ġcircuit": 11730, "ĠPhilippines": 11731, "aro": 11732, "ACE": 11733, "glas": 11734, "ĠPut": 11735, "Dem": 11736, "Ġvenue": 11737, "Ġnutri": 11738, "password": 11739, "Ġhabits": 11740, "Ġcatalog": 11741, "issance": 11742, "ieve": 11743, "archy": 11744, "Ġarmed": 11745, "Ġwhenever": 11746, "Ġodd": 11747, "Ġcasual": 11748, "Ġstability": 11749, "Ġsurvival": 11750, "Ġbreathing": 11751, "Ġindicated": 11752, "Ġassumed": 11753, "Ġmodules": 11754, "ĠBuy": 11755, "Ġjunior": 11756, "Ġreign": 11757, "ippi": 11758, ".k": 11759, "Ġlift": 11760, "vere": 11761, "Sl": 11762, "Ġmad": 11763, "ifferent": 11764, "ĠStill": 11765, "isd": 11766, "ERROR": 11767, "Ġsmoke": 11768, "_max": 11769, "Ġmapping": 11770, "Ġexped": 11771, "obb": 11772, "Ġsimultane": 11773, "Ġdoesn't": 11774, "uese": 11775, "Ġconcerning": 11776, "Ġvacation": 11777, "NE": 11778, "Ġdefensive": 11779, "ĠRow": 11780, "Ġvegetable": 11781, "ĠAustin": 11782, "Ġdemands": 11783, "sea": 11784, "-k": 11785, "Ġrocks": 11786, "Like": 11787, "Ġgal": 11788, "closure": 11789, "Three": 11790, "rug": 11791, "Ġmaps": 11792, "agger": 11793, "ĠVin": 11794, "Ġouter": 11795, "_val": 11796, "ĠThird": 11797, "Ġsurve": 11798, "Î½": 11799, "ĠBron": 11800, "ĠFinancial": 11801, "asting": 11802, "inction": 11803, "Ġtreatments": 11804, "Ġproduces": 11805, "lector": 11806, "Ġmeters": 11807, "Stream": 11808, "replace": 11809, "icut": 11810, "gged": 11811, "ĠTokyo": 11812, "Ġnominated": 11813, "artial": 11814, "Ġislands": 11815, "________": 11816, "ĠBos": 11817, "Ġmanufacturers": 11818, "gate": 11819, "ĠExternal": 11820, "_network": 11821, "Ġspir": 11822, "Ġbot": 11823, "ĠSchools": 11824, "oreignKey": 11825, "ĠOk": 11826, "emory": 11827, "Ġfunny": 11828, "ataset": 11829, "RS": 11830, "Ġproducers": 11831, "ĠPO": 11832, "anton": 11833, "Ġabsence": 11834, "udo": 11835, "ĠEV": 11836, "Ġhealing": 11837, ".session": 11838, "Ġrepeat": 11839, "eling": 11840, "idays": 11841, "Ġpodcast": 11842, "Ġdies": 11843, ".json": 11844, "ĠFame": 11845, "upported": 11846, "Ġpyl": 11847, "South": 11848, "Ġclassroom": 11849, "Ġproc": 11850, "Ġfraud": 11851, "Ġtmp": 11852, "Ġwithdraw": 11853, "bean": 11854, "Ġacceler": 11855, "Ġsilent": 11856, "Ġlogic": 11857, "Ġborrow": 11858, "pur": 11859, "encoding": 11860, "agent": 11861, "Ġtomatoes": 11862, "Ġbutt": 11863, ")]": 11864, "sys": 11865, "ĠSteel": 11866, "ariables": 11867, "Ġattacked": 11868, "Ġ::": 11869, "Call": 11870, "ĠNorwegian": 11871, "Ġrestore": 11872, "Ġverify": 11873, "UTH": 11874, "Ġcrossing": 11875, "estone": 11876, "ĉfor": 11877, "ĠDrive": 11878, "oom": 11879, ".assertIs": 11880, "eland": 11881, "David": 11882, "ardo": 11883, "Ġpremier": 11884, "ĠMoscow": 11885, "Ġpublishing": 11886, "mate": 11887, "oria": 11888, "ĠEmer": 11889, "Ġinhabitants": 11890, "Song": 11891, "ĠBuff": 11892, "ä¸": 11893, "Ġhire": 11894, "ĠContent": 11895, "Ġtransmission": 11896, "Ġoutcome": 11897, "ULL": 11898, "unn": 11899, "ĠSMALL": 11900, "Ġpotatoes": 11901, "Ġpackaging": 11902, "_order": 11903, "illery": 11904, "ialog": 11905, "western": 11906, "ĠBuddh": 11907, "Version": 11908, "UK": 11909, "ĠCF": 11910, "Ġfiber": 11911, "Ver": 11912, "ĠKhan": 11913, ".strip": 11914, "ĠGab": 11915, "ĠWatch": 11916, "Ġcharts": 11917, "amo": 11918, "cludes": 11919, "Ġraising": 11920, "Ġpassenger": 11921, "Ġinsect": 11922, "Ġbrush": 11923, "Book": 11924, "atar": 11925, ".apache": 11926, "_ind": 11927, "-one": 11928, "ospitals": 11929, "ĠProfessional": 11930, "lon": 11931, "Ġje": 11932, "ĠFellow": 11933, "Ġsynd": 11934, "ĠsetUp": 11935, "Ġbeneath": 11936, "ĠArk": 11937, "(line": 11938, "ocate": 11939, "Ġfundamental": 11940, "ĠVice": 11941, "Ġgenu": 11942, "leveland": 11943, "rection": 11944, "Expl": 11945, "ĠImage": 11946, "election": 11947, "ĠAustria": 11948, "Ġjewel": 11949, "(out": 11950, "Ġconsecutive": 11951, "**Ċ": 11952, "ĠVar": 11953, "Ġworkplace": 11954, "Ġconsiderable": 11955, "Code": 11956, "Ġanalytics": 11957, "rison": 11958, "International": 11959, "ipher": 11960, "Ġwhilst": 11961, "Ġdestruction": 11962, "Ġnest": 11963, "ĠSometimes": 11964, "Even": 11965, "Star": 11966, "Ġpret": 11967, "..Ċ": 11968, "inus": 11969, "Ġtherap": 11970, "ĠShould": 11971, "Ġobjectives": 11972, "Äį": 11973, "ospel": 11974, "ĠPack": 11975, "Ġhosting": 11976, "Ġencrypt": 11977, "amon": 11978, "Ġaccompanied": 11979, "aration": 11980, "Ġyard": 11981, "')])Ċ": 11982, "Ġgifts": 11983, "Ġles": 11984, "geon": 11985, "Use": 11986, "Ġprohib": 11987, "ĠKelly": 11988, "inos": 11989, "Ġcontribution": 11990, "Ġcognitive": 11991, "ĠHans": 11992, ".extend": 11993, "ĠDonald": 11994, "Ġscrap": 11995, "altimore": 11996, "Ġgenre": 11997, "Ġdepict": 11998, "Ġfranchise": 11999, "Device": 12000, "Ġobjective": 12001, "iders": 12002, "Ġtoler": 12003, "idal": 12004, "ĠImp": 12005, "ĠNik": 12006, "Ġinteractions": 12007, "uilder": 12008, "Ã¼r": 12009, "amount": 12010, "Ġber": 12011, "ĠABC": 12012, "Ġlegacy": 12013, "Ġillegal": 12014, "Public": 12015, "Ġlicensed": 12016, "sburgh": 12017, "âĦ¢": 12018, "ĠCow": 12019, "Ġinterviews": 12020, "Ġcorporation": 12021, "Video": 12022, "-------": 12023, "Ġloyalty": 12024, "-con": 12025, "ĠSalt": 12026, "Ġfascinating": 12027, ";\"": 12028, "_device": 12029, ",âĢĻ": 12030, "-life": 12031, "oca": 12032, "ĠAlan": 12033, "enz": 12034, "Ġvolunteer": 12035, "ships": 12036, "Ġproven": 12037, "Ġequally": 12038, "Ġpopulations": 12039, "Ġbehalf": 12040, "Ġpleased": 12041, "Ġfewer": 12042, "Ġmystery": 12043, "Ġsatisfied": 12044, "Ġdancing": 12045, ".]Ċ": 12046, "ĠRoom": 12047, "mediate": 12048, "Ġphrase": 12049, "ĠCra": 12050, "when": 12051, "Link": 12052, "_qu": 12053, "utenberg": 12054, "Ġtired": 12055, "etary": 12056, "Ġprinciple": 12057, "ĠTurkish": 12058, "kt": 12059, "Thank": 12060, "izard": 12061, "imm": 12062, "Ġformats": 12063, "ĠDyn": 12064, "Ġordinary": 12065, "Ġasks": 12066, "Ġsour": 12067, "ĠRick": 12068, "ORE": 12069, "Ġasc": 12070, "ĠPa": 12071, "Ġeligible": 12072, "Ġhal": 12073, "mn": 12074, "ĠGrant": 12075, "Ġexcitement": 12076, "Ġanniversary": 12077, "ĠMobile": 12078, "Ġstats": 12079, "rat": 12080, "BM": 12081, "ĠNative": 12082, "Ġcontinuous": 12083, "Ġpacket": 12084, "Ġ>>": 12085, "next": 12086, "Ġcertificate": 12087, "Ġdoctors": 12088, "ĠGib": 12089, ".Set": 12090, "ĠAli": 12091, "_source": 12092, "atherine": 12093, "\\u": 12094, "sis": 12095, "chain": 12096, "gt": 12097, "ĠClean": 12098, "}{": 12099, "Ġcous": 12100, "find": 12101, "Ġgap": 12102, "ĠNature": 12103, "white": 12104, "ĠHig": 12105, "created": 12106, "ILL": 12107, "ĠJava": 12108, "Ġherbs": 12109, "></": 12110,
[...]
